the 18620
. 11999
to 11539
, 11466
in 11368
a 10594
of 10494
on 7946
's 5188
and 5108
said 4861
for 4651
us 3238
as 2539
with 2396
at 2248
monday 2247
## 2187
thursday 2090
after 2089
by 2010
tuesday 1998
an 1836
from 1817
friday 1775
percent 1762
wednesday 1682
that 1642
<unk> 1561
was 1527
new 1522
over 1390
president 1388
here 1320
its 1307
his 1283
it 1219
has 1218
minister 1170
government 1165
financial 1154
`` 1146
up 1109
'' 1010
were 975
will 974
#.# 956
-lrb- 954
-rrb- 953
two 950
bank 937
### 912
sunday 908
shares 905
is 874
dollars 872
world 865
against 864
china 862
officials 855
saturday 850
their 834
#.## 832
prices 826
police 787
un 784
south 778
killed 766
down 735
first 724
crisis 712
talks 707
be 698
french 690
have 684
people 683
more 666
european 655
russian 643
into 640
#### 630
year 625
he 621
billion 607
prime 602
out 597
three 577
global 576
dollar 576
announced 574
british 566
markets 566
official 556
plan 554
country 553
had 553
state 553
street 552
million 541
one 540
foreign 540
group 540
oil 537
wall 534
reported 534
dealers 528
russia 524
close 521
former 517
day 516
united 511
which 505
but 504
share 502
chinese 502
peace 498
military 496
bailout 496
would 495
party 494
security 487
rescue 486
trade 485
market 483
who 481
stocks 479
amid 477
leader 475
stock 464
house 460
says 452
not 447
off 439
international 436
france 434
than 434
israel 431
indian 431
states 429
been 428
week 425
central 425
last 421
deal 413
eu 404
war 404
court 399
israeli 398
news 395
political 394
higher 394
this 393
economic 390
next 387
opposition 384
four 381
chief 379
white 377
early 377
hong 376
dead 371
kong 371
years 369
troops 368
they 368
about 366
end 365
lower 363
attack 359
top 358
lehman 357
second 354
between 352
when 352
are 344
closed 341
agency 340
national 339
india 338
iraq 334
german 327
pakistan 325
banks 322
five 318
set 317
leaders 316
africa 313
trading 310
bush 307
back 306
following 305
britain 305
visit 305
general 302
union 301
month 300
north 298
southern 297
nuclear 296
major 296
capital 294
london 290
authorities 289
city 289
brothers 286
west 285
parliament 285
called 284
korea 284
australian 284
spokesman 283
could 283
army 282
obama 282
giant 282
chechnya 281
least 277
#,### 277
forces 272
bosnia 271
mccain 269
company 269
- 265
economy 262
georgia 262
air 262
congress 260
despite 256
milk 256
cup 255
bid 253
john 251
australia 249
italian 247
injured 246
help 244
taiwan 243
iran 241
six 240
investment 240
islamic 239
under 238
her 238
before 238
african 235
nato 234
sector 234
bosnian 233
plans 232
republic 232
england 231
border 230
zealand 230
months 229
all 228
palestinian 228
force 228
zimbabwe 227
aid 226
left 226
attacks 225
asian 225
death 224
elections 224
near 223
no 223
arrested 223
ahead 222
##.# 222
investors 221
rights 221
bomb 220
during 220
fell 220
some 219
defense 216
soldiers 215
tokyo 215
meet 214
opened 213
open 211
ruling 210
meeting 209
shot 208
fears 207
finance 207
power 205
vote 205
since 205
east 205
lawmakers 205
take 203
rose 202
held 202
summit 202
calls 201
points 200
other 200
agreement 199
northern 199
thai 198
ministry 198
him 197
third 196
days 196
pm 196
killing 195
time 194
militants 194
key 194
countries 194
george 193
trial 192
american 191
office 191
massive 190
test 189
car 188
europe 187
afghanistan 186
leading 186
secretary 185
or 184
saying 184
fire 182
seven 182
late 182
mission 181
reports 180
yen 179
presidential 178
support 178
if 178
report 176
head 176
exchange 175
october 175
turmoil 174
airport 174
egypt 173
senior 172
ministers 172
warned 172
system 171
hit 171
gulf 171
wounded 170
through 170
bill 170
' 170
plane 169
moscow 168
rebel 168
home 167
strike 166
w. 165
region 165
accused 165
clinton 165
banking 164
korean 163
york 163
council 162
another 162
man 162
cricket 161
died 161
may 160
including 159
election 159
due 159
germany 158
being 158
rate 157
euros 156
-- 156
november 156
nations 156
scandal 156
barack 155
won 155
food 155
spain 154
made 154
moslem 153
sri 153
hold 153
suspected 152
hopes 152
agreed 152
record 152
federal 152
republican 151
win 151
press 150
final 150
further 150
sources 150
weekend 149
discuss 149
commission 148
health 148
washington 148
rebels 148
paris 148
package 147
lebanon 147
ban 147
crash 146
main 145
nine 145
told 145
troubled 145
protest 145
# 145
violence 145
still 145
high 144
victory 144
rejected 143
energy 143
league 143
ground 143
fall 142
western 142
local 141
part 141
rival 141
fight 140
index 140
coalition 140
malaysian 140
most 139
human 139
cut 138
action 138
demand 138
boost 137
according 137
growth 137
biggest 136
fresh 136
armed 135
corruption 135
while 135
credit 135
asia 135
town 134
release 134
gains 134
them 134
serb 133
fighting 132
released 132
rise 132
sales 132
collapse 132
firm 132
conflict 131
spanish 130
opening 130
premier 130
move 129
across 129
coast 129
strong 129
thousands 128
campaign 128
launched 128
start 127
found 127
eight 127
urged 127
law 126
overnight 126
latest 126
september 125
face 125
make 125
cabinet 125
concerns 124
chechen 123
serbs 123
return 123
inflation 123
showed 123
morning 123
interest 123
afghan 123
there 122
signed 122
gold 122
bombing 122
go 122
grozny 121
public 121
charges 121
media 120
conference 120
around 119
others 119
joint 119
expected 119
products 119
resignation 119
berlusconi 119
ago 119
##,### 118
murder 118
ike 118
suicide 117
where 117
lanka 117
began 117
cooperation 116
eastern 115
series 115
nearly 115
department 115
emergency 115
debate 115
money 114
one-day 114
philippine 114
industry 114
breakaway 114
arrived 114
decision 114
workers 114
soldier 113
statement 113
members 113
several 113
sharply 113
failed 112
claims 112
embassy 112
ireland 111
lead 111
team 111
children 111
sign 110
earlier 110
january 110
pressure 110
august 110
efforts 110
opens 110
work 109
probe 109
free 109
airline 109
say 109
iraqi 109
hurricane 109
blast 109
clashes 109
program 108
helicopter 108
euro 108
reserve 108
firms 107
indonesian 107
slightly 107
polls 107
###,### 106
saudi 106
democratic 106
christmas 106
match 106
call 106
middle 106
case 105
body 105
labor 105
largest 105
canada 105
province 105
italy 104
television 104
vietnam 104
step 104
syria 104
center 103
drug 103
because 103
aimed 103
pounds 102
ties 102
jailed 102
urges 102
women 102
put 101
ordered 101
star 101
insurance 101
traders 101
pct 101
daily 100
pope 100
space 100
arab 100
deadly 100
lebanese 100
measures 100
warns 100
turkish 100
vowed 99
afp 99
plunged 99
aig 99
took 99
buy 99
sanctions 99
future 98
what 98
nation 98
rates 98
half 98
nigeria 98
charged 98
rivals 97
bankruptcy 97
losses 97
school 97
thailand 97
again 97
mexico 97
continued 96
keep 96
parliamentary 96
swiss 96
budget 96
yeltsin 96
gain 96
can 96
hotel 95
arafat 95
jewish 95
companies 95
huge 95
storm 95
prison 95
ship 94
should 94
only 93
#-# 93
met 93
somali 93
she 93
led 93
plunge 93
mark 93
number 93
algeria 93
offer 93
control 92
way 92
rally 92
debt 92
mbeki 92
jobs 92
separatist 91
embattled 91
hours 91
woman 91
ceasefire 91
confidence 90
plo 90
bolivia 90
any 90
alleged 90
forced 90
kills 90
race 90
board 90
palin 89
season 89
alitalia 89
figures 89
bihac 89
claimed 89
taking 89
malaysia 89
newspaper 88
growing 88
judge 88
deficit 88
past 88
sudan 88
envoy 88
sweden 88
operation 88
sent 87
life 87
beijing 87
ended 87
planned 87
policy 87
battle 86
annual 86
tour 86
philippines 86
without 86
dutch 86
possible 86
quarter 86
japan 86
film 85
passengers 85
just 85
iranian 85
island 85
robert 84
hundreds 84
men 84
launch 84
radio 84
run 84
swedish 84
civil 84
nigerian 84
refugees 84
turkey 83
jail 83
freed 83
confirmed 83
bangladesh 82
diplomatic 82
price 82
proposed 82
private 82
suspended 82
hospital 82
lost 81
falls 81
##.## 81
ukraine 81
safety 81
sarkozy 81
join 81
production 81
special 80
football 80
get 80
analysts 80
arms 80
condemned 80
jet 80
outside 79
palestinians 79
session 79
accord 79
wants 79
channel 79
baghdad 79
use 79
groups 79
egyptian 79
militant 79
service 78
ready 78
both 78
must 78
went 78
sentenced 78
recent 78
muslim 78
flight 78
gaza 78
pay 77
myanmar 77
tax 77
whether 77
concern 77
december 77
organization 77
business 77
gas 77
frankfurt 77
ambassador 77
negotiations 77
sarajevo 77
member 76
committee 76
pirates 76
parties 76
row 76
protests 76
carter 76
loan 76
now 76
selling 75
assembly 75
king 75
worst 75
liquidity 75
###.## 75
save 75
olmert 75
crashed 74
vice 74
services 74
soon 74
indonesia 74
arrest 74
aids 73
irish 73
heavy 73
democrat 73
round 73
settlement 73
mass 73
data 73
published 73
#,###.## 73
scoreboard 73
taken 73
algerian 72
chairman 72
coach 72
shooting 72
gets 72
fired 72
crude 72
poll 72
explosion 72
toll 72
agree 72
seeks 72
missing 72
weeks 71
pakistani 71
jerusalem 71
worries 71
pilot 71
airlines 71
mexican 71
profits 71
march 71
anniversary 71
silvio 71
rules 71
croatian 71
real 70
denied 70
guerrillas 70
somalia 70
###-billion-dollar 70
ease 70
brown 70
industrial 70
threat 70
show 70
deputy 70
banned 69
kill 69
greek 69
see 69
peacekeepers 69
slams 69
until 69
independence 69
give 69
mugabe 68
worth 68
club 68
operations 68
takes 68
named 68
fund 68
flights 68
regional 68
treasury 68
likely 68
faces 67
pledged 67
jordan 67
illegal 67
vows 67
commander 67
order 67
controversial 67
prisoners 67
current 67
wake 67
wins 67
continue 67
crew 67
claim 67
sell 67
crimes 67
among 66
justice 66
sea 66
presidency 66
texas 66
aircraft 66
yemen 66
holding 66
bus 66
powerful 66
welcomed 66
failure 66
takeover 66
kashmir 66
line 66
within 66
plant 66
area 65
america 65
rejects 65
low 65
process 65
building 65
signs 65
stake 65
small 65
drop 65
warning 65
corp. 65
players 65
cuts 65
train 65
georgian 65
send 65
calling 64
denies 64
play 64
threatened 64
mixed 64
authority 64
hurt 64
behind 64
prosecutor 64
convicted 64
previous 64
announces 64
draft 64
kenya 64
speech 64
begin 64
##th 64
big 63
church 63
morgan 63
michael 63
power-sharing 63
##-year-old 63
communist 63
gatt 63
movement 63
ruled 63
cash 63
paul 62
assets 62
stop 62
relations 62
expressed 62
prize 62
family 62
seized 62
hijacked 62
boris 62
form 62
leadership 62
slump 62
victims 62
orders 62
little 62
protection 61
canadian 61
rabin 61
doubts 61
champion 61
sought 61
base 61
dies 61
candidate 61
territory 61
officer 61
condemns 61
journalists 61
.## 61
hamas 61
toxic 61
challenge 61
resign 61
remains 61
tainted 61
many 61
unions 61
seek 61
uncertainty 60
venezuela 60
staff 60
leaves 60
de 60
english 60
heads 60
buying 60
watchdog 60
###.##-### 60
right 60
suffered 60
kuwait 60
decided 60
away 59
governing 59
chemical 59
increase 59
development 59
democrats 59
trying 59
travel 59
hezbollah 59
historic 58
ali 58
yasser 58
stand 58
chiefs 58
gave 58
light 58
carrying 58
same 58
problems 58
anc 58
unveiled 58
issue 58
leaving 58
administration 58
profit 58
given 58
champions 58
fourth 57
finland 57
reached 57
declared 57
thabo 57
representatives 57
intervention 57
sale 57
japanese 57
moves 56
towards 56
holds 56
backs 56
times 56
own 56
legal 56
rises 56
himself 56
post 56
carrier 56
seeking 56
cuba 56
attacked 56
powder 56
association 56
blasts 56
renewed 56
drugs 55
nobel 55
delegation 55
reach 55
navy 55
moved 55
supreme 55
expansion 55
level 55
fuel 55
tunnel 55
came 55
kurdish 55
islamist 55
attempt 55
clash 55
facing 55
running 55
mandela 55
kenyan 55
prince 55
crucial 55
interior 55
become 55
kim 55
search 55
retail 55
terrorist 54
hopeful 54
peres 54
olympic 54
find 54
fraud 54
imports 54
tourists 54
resigned 54
bourse 54
damage 54
stay 54
young 54
such 54
detained 54
allegations 54
gordon 54
blamed 53
caused 53
arabia 53
xinhua 53
beat 53
bad 53
crackdown 53
leave 53
royal 53
terror 53
launches 53
recession 53
demands 53
dairy 53
station 53
rising 53
currencies 53
faced 53
tensions 53
pact 53
fortis 53
remained 53
internet 53
baby 53
stage 53
side 53
land 53
ferry 53
asked 53
total 52
cancer 52
whose 52
gunmen 52
deadline 52
project 52
jimmy 52
linked 52
currency 52
allow 52
red 52
progress 52
funds 52
david 52
slide 52
calm 52
computer 52
old 52
unrest 52
ailing 52
delors 52
defeat 52
output 52
skorea 52
mobile 52
source 52
gay 52
sarah 51
role 51
caucasus 51
gates 51
fate 51
constitution 51
sparked 51
shell 51
quit 51
midday 51
issued 51
later 51
airliner 51
bangladeshi 51
loss 51
arrives 51
policeman 51
charge 51
less 51
experts 51
unprecedented 51
job 51
place 51
guilty 51
lives 51
convoy 51
judicial 51
bring 50
dropped 50
prevent 50
students 50
working 50
officers 50
institutions 50
long 50
civilian 50
cambodia 50
raid 50
scare 50
babies 50
civilians 50
game 50
brought 50
wife 50
ukrainian 50
almost 50
die 50
director 50
prepared 49
finnish 49
cross 49
medical 49
even 49
unity 49
congo 49
domestic 49
slammed 49
below 49
build 49
seen 49
investigation 49
allegedly 49
spokeswoman 49
hits 49
pipeline 49
sex 49
dissident 49
address 49
supply 49
social 49
resume 49
minutes 49
voters 48
occupied 48
weapons 48
used 48
alert 48
broke 48
tamil 48
worldwide 48
poland 48
powers 48
alliance 48
come 48
rule 48
treatment 48
drive 48
steps 48
road 48
warren 47
bans 47
results 47
trip 47
medvedev 47
counterpart 47
title 47
algiers 47
technology 47
afternoon 47
consumer 47
statistics 47
organisation 47
night 47
hope 47
taliban 47
contaminated 47
break 47
good 47
witnesses 47
information 47
ever 47
port 47
monetary 47
assault 47
effort 47
festival 47
nepal 47
california 46
senate 46
ending 46
dispute 46
policemen 46
championship 46
received 46
period 46
truck 46
massacre 46
residents 46
lifted 46
try 46
games 46
airbus 46
ii 46
reform 46
might 46
nicolas 46
surplus 46
camp 46
pulled 46
withdrawal 46
coming 46
how 46
ehud 46
strikes 46
shanghai 45
humanitarian 45
goes 45
push 45
federation 45
billions 45
refused 45
tough 45
eve 45
belgian 45
links 45
karachi 45
cambodian 45
skorean 45
cuban 45
speaker 45
rebound 45
net 45
sharp 45
murdered 45
dozens 45
front 45
girl 45
san 45
mps 45
us-led 45
livni 45
unit 44
turned 44
owners 44
provide 44
also 44
making 44
green 44
accept 44
closes 44
closer 44
meltdown 44
majority 44
tourist 44
destroyed 44
having 44
doctors 44
###.# 44
property 44
heart 44
full 44
ends 44
sets 44
boat 44
vietnamese 44
#.#### 44
hostages 44
croatia 43
too 43
block 43
returned 43
constitutional 43
battered 43
venture 43
serious 43
incident 43
traffic 43
gives 43
tests 43
interview 43
sold 43
auction 43
yemeni 43
referendum 43
sees 43
short 43
replace 43
offered 43
al-qaeda 43
rand 43
holiday 43
volatile 43
pentagon 43
prosecutors 42
belarus 42
backed 42
black 42
serbia 42
restore 42
response 42
arrive 42
marks 42
moslems 42
stability 42
treaty 42
accuses 42
target 42
gmt 42
demanded 42
contract 42
suspects 42
begins 42
ashes 42
welcomes 42
headed 42
boss 42
became 42
hands 42
millions 42
greece 42
yet 42
hearing 42
pacific 41
request 41
appeared 41
downed 41
socialist 41
shiite 41
offers 41
tumbled 41
july 41
pilots 41
sending 41
truce 41
syrian 41
belgrade 41
position 41
governor 41
manager 41
point 41
positive 41
delays 41
aboard 41
cars 41
politician 41
fed 41
figure 41
peacekeeping 41
factions 41
person 41
sudanese 41
conditions 41
norwegian 41
marriott 40
catholic 40
risk 40
norway 40
popular 40
sacked 40
do 40
shut 40
invest 40
visits 40
planning 40
community 40
promised 40
agrees 40
polish 40
angola 40
strip 40
fighters 40
double 40
milan 40
offensive 40
disputed 40
ecb 40
diplomat 40
auto 40
slovenia 40
change 40
earthquake 40
karadzic 40
basque 39
seriously 39
halt 39
winning 39
delhi 39
zone 39
spread 39
americans 39
seize 39
insisted 39
spy 39
executive 39
prospects 39
saw 39
so 39
fundamentalist 39
pull 39
danish 39
crunch 39
century 39
confirms 39
sweeping 39
premiership 39
issues 39
postponed 39
bomber 39
immigration 39
those 39
rice 39
jacques 39
accident 39
scientists 39
switzerland 39
event 38
chavez 38
exploded 38
chancellor 38
warplanes 38
brazilian 38
grand 38
hall 38
university 38
study 38
recovery 38
soared 38
loans 38
talk 38
water 38
missile 38
hussein 38
technical 38
atomic 38
injuries 38
highest 38
religious 38
finished 38
command 38
best 38
falling 38
enclave 38
soviet 38
withdraw 38
##-year 38
makes 38
securities 38
cost 38
allowed 38
term 38
deaths 38
bail 38
tv 38
northwestern 38
telephone 38
tonnes 38
expand 38
gibraltar 38
woes 38
large 37
futures 37
involved 37
son 37
host 37
yitzhak 37
indies 37
struggling 37
bahrain 37
contact 37
tsvangirai 37
need 37
officially 37
handed 37
hindu 37
accusing 37
fails 37
marked 37
areas 37
disaster 37
river 37
stimulus 37
child 37
personal 37
criticism 37
intelligence 37
thaksin 37
injury 37
cruise 37
francs 37
brazil 36
planes 36
lawyers 36
politics 36
jump 36
along 36
panic 36
bringing 36
islamabad 36
lankan 36
northwest 36
pledges 36
combat 36
affairs 36
reforms 36
resort 36
effect 36
observers 36
invasion 36
putin 36
mayor 36
agreements 36
sworn 36
terms 36
well 36
hbos 36
link 36
franc 36
situation 36
slumped 36
hijackers 36
refugee 36
rwanda 36
software 36
canceled 36
bodies 36
network 36
fallout 36
restive 36
\/ 36
phone 36
melbourne 36
desert 36
elected 36
bishop 36
disease 35
date 35
terrorism 35
cargo 35
deep 35
did 35
secessionist 35
focus 35
compared 35
meets 35
resigns 35
far 35
like 35
hailed 35
details 35
hariri 35
deals 35
speculation 35
n't 35
protect 35
quoted 35
feared 35
emerged 35
austria 35
giving 35
motlanthe 35
voted 35
interfax 35
tens 35
baseball 35
deutsche 35
christopher 35
cairo 35
transport 35
approved 35
eurozone 35
average 35
blow 35
goldman 35
crime 35
membership 35
##-day 35
typhoon 35
better 34
zardari 34
sports 34
extremists 34
miles 34
rugby 34
clean 34
hollywood 34
shimon 34
tiger 34
exports 34
needed 34
commerce 34
pass 34
electric 34
three-day 34
village 34
tackle 34
delay 34
mostly 34
dramatic 34
consortium 34
commercial 34
pledge 34
surged 34
great 34
driver 34
name 34
unita 34
bond 34
ramadan 34
competition 34
shelves 34
risks 34
merger 34
autonomy 34
estate 34
wto 34
confident 34
darfur 34
battles 34
resolve 34
increased 33
bombings 33
turn 33
prisoner 33
projects 33
bombs 33
then 33
chance 33
fly 33
revealed 33
conservative 33
tight 33
casualties 33
itar-tass 33
wing 33
genocide 33
tried 33
decades 33
islands 33
pound 33
iaea 33
attend 33
partners 33
surge 33
weak 33
v 33
admitted 33
ill 33
fear 33
regions 33
activists 33
suspect 33
poor 33
approval 33
mozambique 33
threats 33
sank 33
freighter 33
mideast 33
kosovo 33
construction 33
&amp; 33
prominent 33
include 33
ruble 33
boeing 33
improve 32
got 32
starts 32
filed 32
park 32
fifth 32
self-rule 32
democracy 32
gunman 32
four-day 32
cold 32
milosevic 32
governments 32
rocket 32
tehran 32
showing 32
setting 32
together 32
pyongyang 32
activities 32
slalom 32
ongoing 32
single 32
posts 32
quits 32
seoul 32
much 32
names 32
lows 32
maker 32
operator 32
list 32
homes 32
tells 32
crashes 32
quiet 32
avert 32
abroad 32
lift 32
austrian 32
reduce 32
unchanged 32
ethnic 32
connection 32
review 32
immediate 32
tournament 32
settlers 32
regulator 31
journalist 31
sends 31
doubt 31
decline 31
flying 31
losing 31
rain 31
spending 31
rumors 31
wanted 31
remain 31
ceremony 31
appealed 31
above 31
diplomats 31
formula 31
district 31
moderate 31
resistance 31
zero 31
blocked 31
visiting 31
fishing 31
housing 31
burundi 31
##-## 31
ocean 31
forecast 31
goods 31
fundamentalists 31
independent 31
berlin 31
extend 31
achille 31
lauro 31
act 31
lawyer 31
ossetia 31
sachs 31
rwandan 31
immigrants 31
lira 31
kadima 31
urge 31
oic 31
rallied 31
finish 31
struck 31
factory 31
dudayev 31
unemployment 31
helped 30
separatists 30
venezuelan 30
rail 30
message 30
kohl 30
steel 30
xvi 30
protesters 30
deputies 30
runs 30
speed 30
taipei 30
toward 30
inside 30
scheduled 30
sinn 30
fein 30
fierce 30
fm 30
lack 30
weaker 30
investor 30
value 30
per 30
advance 30
rout 30
partner 30
paulson 30
writer 30
melamine 30
reconciliation 30
ounce 30
nkorea 30
seat 30
research 30
bulgaria 30
hungarian 30
passenger 30
war-torn 30
unveils 30
militia 30
flood 30
railway 30
graft 30
video 30
marathon 30
february 30
raised 30
hostage 30
imposed 30
outskirts 30
helicopters 30
stanley 30
ahmadinejad 30
delta 30
funding 30
eta 29
extended 29
straight 29
benedict 29
families 29
state-run 29
age 29
status 29
site 29
supplies 29
flat 29
mosque 29
dax 29
create 29
museum 29
raise 29
two-day 29
hails 29
seventh 29
puts 29
beating 29
hub 29
direct 29
starting 29
signing 29
customs 29
panama 29
suffering 29
hand 29
arsenal 29
account 29
poverty 29
involvement 29
suspend 29
fatah 29
potential 29
revised 29
commissioner 29
voting 29
imf 29
ira 29
training 29
offices 29
airman 29
hijack 29
changes 29
career 29
stockholm 29
offering 29
google 29
motor 29
equipment 29
uganda 29
mutual 29
couple 29
nikkei 29
schools 28
player 28
paid 28
bitter 28
already 28
regime 28
sides 28
flag 28
present 28
living 28
chain 28
yugoslavia 28
grew 28
believed 28
turns 28
bln 28
lufthansa 28
kept 28
very 28
gathered 28
considering 28
opinion 28
track 28
proposal 28
sanaa 28
accusations 28
magazine 28
certain 28
killer 28
voiced 28
ivory 28
initial 28
threatens 28
#\/## 28
coup 28
mogadishu 28
victim 28
delayed 28
division 28
stressed 28
works 28
closure 28
yukos 28
history 28
electoral 28
shows 28
fragile 28
antonio 28
safe 28
madrid 28
wales 28
quake 28
access 28
jitters 28
buffett 27
asif 27
dmitry 27
receive 27
singh 27
liberian 27
bosnia-hercegovina 27
hoped 27
surprise 27
clear 27
comments 27
expects 27
once 27
drinking 27
entry 27
looking 27
landing 27
agencies 27
described 27
presented 27
stepped 27
slip 27
negotiator 27
continuing 27
criticised 27
peso 27
female 27
settle 27
laws 27
award 27
resumed 27
boosted 27
christian 27
activist 27
inquiry 27
hike 27
cocaine 27
karzai 27
bulgarian 27
advisor 27
respect 27
stolen 27
policies 27
proposals 27
dozen 27
serving 27
want 27
responsibility 27
trafficking 27
preparing 27
announcement 27
di 27
boycott 27
firing 27
jumped 27
guard 27
changed 27
bureau 27
billion-dollar 27
survivors 27
shuttle 27
mp 27
landmark 27
blue 27
tzipi 27
dexia 27
davis 26
angry 26
plot 26
relief 26
shield 26
student 26
few 26
lifting 26
dlrs 26
shed 26
foreigners 26
website 26
reassure 26
shock 26
denounced 26
beirut 26
causing 26
forcing 26
using 26
favor 26
junta 26
edged 26
extends 26
barrel 26
prepare 26
serbian 26
terminal 26
charles 26
nationwide 26
vladimir 26
each 26
morales 26
started 26
ltd. 26
scotland 26
gained 26
positions 26
neighbouring 26
chip 26
stars 26
wounding 26
raising 26
except 26
targets 26
grenade 26
winner 26
russians 26
correspondent 26
belonging 26
boy 26
export 26
vehicles 26
enough 26
demonstrators 26
walk 26
scores 26
book 26
mubarak 26
evidence 26
mandate 26
republicans 26
education 25
offset 25
municipal 25
dismissed 25
slow 25
stadium 25
drama 25
known 25
tanks 25
manufacturer 25
satellite 25
promises 25
ethiopia 25
quickly 25
overseas 25
solution 25
stopped 25
eyes 25
electricity 25
saddam 25
irna 25
athletes 25
hijacking 25
draw 25
warn 25
henry 25
telecom 25
squad 25
celebrations 25
result 25
bonds 25
angolan 25
movie 25
cac 25
mounting 25
backing 25
posted 25
waters 25
traditional 25
slipped 25
split 25
rare 25
roman 25
resolution 25
adding 25
hard 25
stalled 25
vast 25
balance 25
surgery 25
critical 25
troop 25
maoist 25
rescued 25
itself 25
manchester 25
dow 25
trust 25
palace 25
performance 25
accepted 25
critics 25
mining 25
telecommunications 25
reserves 25
quick 25
announce 25
father 25
belgium 25
agriculture 25
iberia 25
anglican 25
struggle 24
survival 24
evening 24
weekly 24
oslo 24
hockey 24
fighter 24
score 24
unprofor 24
remarks 24
nazi 24
shops 24
pick 24
estimated 24
crack 24
survey 24
adjourned 24
captain 24
skipper 24
conservatives 24
rafic 24
blames 24
mortgage 24
putting 24
claiming 24
van 24
guarantee 24
becoming 24
blue-chip 24
yacht 24
eased 24
avoid 24
headquarters 24
observer 24
b 24
barclays 24
parts 24
libya 24
management 24
cast 24
lourdes 24
attempts 24
brussels 24
suspension 24
slowdown 24
thought 24
continues 24
shore 24
tiny 24
kuwaiti 24
pietro 24
mother 24
organisers 24
contain 24
triggered 24
piracy 24
hunting 24
driven 24
crossing 24
watch 24
investigate 24
provincial 24
#,###.# 24
shots 24
amnesty 24
tourism 24
marseille 24
welcome 24
penalty 24
electronics 24
income 24
severe 24
honor 24
responsible 24
lines 24
concerned 24
agenda 24
forest 23
fashion 23
tycoon 23
involving 23
leg 23
blair 23
launching 23
closing 23
poised 23
soar 23
returns 23
khmer 23
raids 23
ousted 23
damascus 23
patrol 23
weather 23
probes 23
ftse 23
accords 23
does 23
steady 23
decide 23
integration 23
bombed 23
besieged 23
defends 23
broken 23
violations 23
dipped 23
holy 23
long-awaited 23
hamid 23
blew 23
subway 23
music 23
mainland 23
joining 23
viktor 23
threw 23
tension 23
documents 23
trophy 23
goals 23
operating 23
st 23
silence 23
sentence 23
cover 23
producer 23
exposure 23
sickened 23
class 23
tribal 23
sunni 23
going 23
bankrupt 23
juppe 23
tanker 23
recovering 23
hirst 23
phase 23
rebounded 23
buys 23
microsoft 23
merrill 23
rescuers 23
zagreb 23
newspapers 23
ki-moon 23
drops 23
finally 23
nordic 23
tennis 23
vessel 23
urgent 23
husband 23
debut 23
advisory 22
hugo 22
colony 22
deeper 22
dubai 22
decade 22
ambush 22
francois 22
passed 22
entire 22
enter 22
moving 22
slid 22
samak 22
formally 22
tanzania 22
streets 22
awaited 22
rouge 22
lending 22
impact 22
alain 22
rock 22
joined 22
plunges 22
institute 22
solo 22
super 22
collapsed 22
fail 22
recovered 22
hoping 22
lunch 22
range 22
kgalema 22
bombers 22
kingsmead 22
israelis 22
smuggling 22
cleared 22
important 22
legend 22
candidates 22
remaining 22
legislators 22
ships 22
anti-corruption 22
threatening 22
injuring 22
abandoned 22
problem 22
monitoring 22
hungary 22
chechens 22
legislative 22
art 22
recently 22
mountains 22
able 22
outgoing 22
argentina 22
carried 22
clashed 22
tomba 22
stem 22
largely 22
bolster 22
scored 22
strongly 22
warne 22
abdullah 22
divided 22
votes 22
motors 22
subsidiary 22
abortion 22
arrests 22
csce 22
chips 22
##,###.## 22
raises 22
radovan 22
agent 22
oil-rich 21
rangers 21
colombia 21
slam 21
adams 21
bollywood 21
basis 21
mitterrand 21
fellow 21
borders 21
transition 21
defending 21
looks 21
##-month 21
radical 21
anger 21
captured 21
rejection 21
gun 21
exhibition 21
facilities 21
stamp 21
strengthen 21
pocket 21
uranium 21
introduce 21
differences 21
uruguay 21
miss 21
eye 21
fast 21
internal 21
cautious 21
maritime 21
deposits 21
yugoslav 21
stabilise 21
fallen 21
candy 21
insurer 21
rocked 21
increasingly 21
brink 21
mounted 21
secret 21
failing 21
winter 21
sentiment 21
sharing 21
multi-party 21
though 21
unless 21
supporters 21
; 21
rocks 21
disarmament 21
earnings 21
costs 21
look 21
challenges 21
compensation 21
neighbors 21
delegates 21
wide 21
appointed 21
queen 21
aeroflot 21
actions 21
negotiators 21
pace 21
environment 21
succeed 21
import 21
shinawatra 21
dr 21
omar 21
alberto 21
violent 21
invited 21
secure 21
bilateral 21
adopted 21
niger 21
maintain 21
murdering 21
oscar 21
erupted 21
negotiate 21
downturn 21
gunbattle 21
legislation 21
success 21
commuter 21
mediation 21
ford 21
los 20
angeles 20
awarded 20
chrysler 20
peter 20
czech 20
citizens 20
tumble 20
extra 20
ten 20
istanbul 20
emirates 20
turning 20
electronic 20
jackson 20
divorce 20
discussions 20
muslims 20
pullout 20
nelson 20
contracts 20
investigating 20
breaking 20
committed 20
view 20
proposes 20
ways 20
blasted 20
infant 20
never 20
bought 20
daughter 20
defend 20
evo 20
governors 20
scene 20
sugar 20
getting 20
keeps 20
sixth 20
discovered 20
abbas 20
blaze 20
minority 20
lender 20
helping 20
thrown 20
payments 20
cinema 20
panel 20
simpson 20
golf 20
state-owned 20
anwar 20
athens 20
admits 20
stations 20
atlantic 20
promise 20
limited 20
indicted 20
giants 20
aide 20
personnel 20
strategic 20
mahmoud 20
artist 20
lavrov 20
aviation 20
cities 20
negotiating 20
lynch 20
allowing 20
digital 20
winds 20
lashed 20
ahmad 20
remote 20
scheme 20
field 20
sebastian 20
astronauts 20
dive 20
blame 20
swaziland 20
settlements 20
temple 20
intended 20
osce 20
opec 20
lowest 20
june 20
siemens 20
trouble 20
box 20
units 20
priests 20
djibouti 20
struggled 19
surrounding 19
investments 19
senator 19
separate 19
frees 19
religion 19
alexander 19
population 19
airways 19
coastal 19
staged 19
iraqis 19
appeal 19
###-billion 19
edge 19
bloc 19
rampage 19
slobodan 19
era 19
struggles 19
mainly 19
built 19
jones 19
forward 19
questions 19
shopping 19
multilateral 19
northeastern 19
themselves 19
sydney 19
every 19
lawmaker 19
wounds 19
finds 19
i 19
manila 19
grip 19
virus 19
mafia 19
common 19
granted 19
striking 19
stranded 19
celebrate 19
sir 19
riot 19
guards 19
deepened 19
pushed 19
escape 19
dan 19
championships 19
deepening 19
al 19
sick 19
floods 19
akashi 19
belgian-dutch 19
ben 19
olympics 19
sells 19
hunt 19
jean 19
magistrate 19
author 19
executed 19
course 19
curb 19
eases 19
expectations 19
resumes 19
peru 19
prompted 19
product 19
liner 19
lingering 19
marking 19
reacted 19
evacuated 19
cleric 19
advanced 19
rest 19
marginally 19
warring 19
####s 19
sparking 19
far-right 19
nightclub 19
ultimatum 19
swimming 19
faction 19
geneva 19
extremist 19
volume 19
estonia 19
crush 19
refusing 19
northeast 19
liberia 19
footsie 19
dzhokhar 19
matches 19
adventurer 19
letter 19
orange 18
gang 18
similar 18
cause 18
traded 18
begun 18
protested 18
tea 18
discussed 18
hero 18
loses 18
jury 18
file 18
beginning 18
strategy 18
drought 18
means 18
consider 18
refuses 18
worried 18
uae 18
consumers 18
titan 18
continent 18
guerrilla 18
liberal 18
highly 18
deny 18
crown 18
metal 18
introduced 18
suspends 18
lay 18
beleaguered 18
returning 18
pursue 18
europeans 18
disputes 18
substantial 18
complex 18
comparison 18
playing 18
sheikh 18
holidays 18
acquire 18
lloyds 18
tsb 18
portugal 18
path 18
celebrated 18
detainees 18
tense 18
interests 18
vehicle 18
existing 18
zuma 18
camps 18
store 18
##-hour 18
critically 18
timor 18
computers 18
revenge 18
leftist 18
insurgents 18
snow 18
declares 18
classic 18
brief 18
abkhazia 18
kabul 18
transfer 18
needs 18
develop 18
grandfather 18
tel 18
aviv 18
tribunal 18
rao 18
mine 18
rich 18
reject 18
grounds 18
damien 18
parents 18
greenback 18
natural 18
activity 18
slowing 18
solidarity 18
visa 18
preliminary 18
deployed 18
portuguese 18
opposed 18
ad 18
tighten 18
bradford 18
bingley 18
optimistic 18
stronghold 18
deadlock 18
bundesbank 18
christians 18
monitors 18
successful 18
profit-taking 18
toyota 18
asks 18
fully 18
zaire 18
atr 18
al-assad 18
motorway 18
khan 18
throughout 17
equities 17
wave 17
kremlin 17
sites 17
alive 17
correspondents 17
midnight 17
bobby 17
regulators 17
nominee 17
taxes 17
caribbean 17
invitation 17
unbeaten 17
: 17
dialogue 17
briefly 17
ally 17
passage 17
fever 17
gustav 17
execution 17
metals 17
#:## 17
scottish 17
oman 17
injures 17
successor 17
izetbegovic 17
revive 17
taylor 17
thanks 17
allies 17
creation 17
striker 17
prospect 17
releases 17
communists 17
unknown 17
ancient 17
entered 17
guinea 17
kidnapped 17
rebuild 17
dublin 17
nationals 17
famous 17
brands 17
pulls 17
endorsed 17
promote 17
string 17
solid 17
extradition 17
all-out 17
caught 17
reportedly 17
complete 17
leads 17
looms 17
increasing 17
serial 17
ask 17
hardline 17
manufacturing 17
forge 17
jews 17
hurd 17
stricken 17
wickets 17
p.v. 17
narasimha 17
commanders 17
birthday 17
april 17
cia 17
bay 17
representative 17
ambitious 17
considered 17
heard 17
mike 17
ensure 17
fled 17
vice-president 17
presence 17
underway 17
online 17
grachev 17
facility 17
blocks 17
co. 17
devastating 17
bernanke 17
stalemate 17
sentences 17
ag 17
ski 17
appear 17
toshiba 17
collision 17
revolt 17
jet-powered 17
go-ahead 17
netherlands 17
climate 17
holdings 17
flash 17
short-selling 16
kilometers 16
added 16
pushing 16
lawsuit 16
tigers 16
criminal 16
salvage 16
territories 16
regular 16
swept 16
owned 16
anti-government 16
azerbaijan 16
latin 16
deadlocked 16
jose 16
plummeted 16
pop 16
reporters 16
ethiopian 16
designed 16
islam 16
seal 16
aiming 16
soaring 16
insisting 16
bruton 16
norodom 16
sihanouk 16
currently 16
unlikely 16
harassment 16
keeping 16
wo 16
trains 16
ranks 16
predicted 16
containing 16
potentially 16
detention 16
defended 16
upcoming 16
fans 16
taiwanese 16
love 16
influence 16
heading 16
bolivian 16
monarchy 16
blackburn 16
ripped 16
businesses 16
spent 16
limit 16
vs 16
downhill 16
militiamen 16
golden 16
brother 16
chaos 16
pressed 16
nervous 16
carlos 16
heroin 16
demonstrated 16
faldo 16
postal 16
ibrahim 16
ulster 16
suit 16
bargain 16
fishermen 16
collided 16
plunging 16
fine 16
defeated 16
corporation 16
aides 16
survive 16
shaken 16
ural 16
qatar 16
cards 16
dip 16
convention 16
incidents 16
cancels 16
pumped 16
breakthrough 16
tracking 16
libyan 16
developing 16
reduction 16
allows 16
guarantees 16
absence 16
aside 16
reshuffle 16
seizure 16
style 16
quoting 16
threaten 16
sectors 16
interim 16
pal 16
programs 16
sheffield 16
fires 16
expelled 16
cyprus 16
table 16
commodity 16
battling 16
absolute 16
charity 16
catholics 16
mate 16
stable 16
scalfaro 16
narrowly 16
replacement 16
mediterranean 16
jong-il 16
bridge 16
bat 16
collection 15
yuan 15
kilometres 15
wiped 15
worsening 15
helmut 15
cross-border 15
infrastructure 15
recognize 15
drawing 15
innings 15
providing 15
perry 15
plotting 15
comeback 15
picked 15
adviser 15
blocking 15
grow 15
bounce 15
industries 15
six-month 15
wound 15
prix 15
monthly 15
bhutto 15
heels 15
branches 15
tasmania 15
grounded 15
homeless 15
communities 15
dumped 15
breaks 15
rupiah 15
sexual 15
lifts 15
drone 15
turbulence 15
pension 15
fiscal 15
exploration 15
nasreen 15
dominated 15
stance 15
trades 15
###th 15
sovereignty 15
alpine 15
hanoi 15
firmer 15
trillion 15
breach 15
verdict 15
offshore 15
suspicion 15
tariffs 15
hiv 15
escaped 15
merkel 15
two-year 15
goal 15
freight 15
shrine 15
urging 15
image 15
gathering 15
worker 15
santander 15
khodorkovsky 15
census 15
although 15
expert 15
danger 15
hunger 15
condoleezza 15
looked 15
blood 15
jails 15
destruction 15
concert 15
hostilities 15
mln 15
owner 15
guns 15
instead 15
summer 15
communications 15
suu 15
kyi 15
targeting 15
employees 15
climbs 15
colombian 15
scandal-plagued 15
veteran 15
morocco 15
exercise 15
rebounds 15
nationalisation 15
distressed 15
highway 15
chemicals 15
dangerous 15
riots 15
care 15
skiing 15
questioning 15
eurotunnel 15
temporary 15
plays 15
martin 15
fleet 15
anatolia 15
boosts 15
route 15
focused 15
naval 15
territorial 15
controls 15
consecration 15
aims 15
investigators 15
armored 15
wachovia 15
pharmaceutical 15
eid 15
reactors 15
suffer 15
eleven 15
sterling 15
squash 15
hosni 15
abducted 15
restrictions 15
tender 15
nec 15
luigi 15
singapore 15
ride 15
intel 15
inter 15
sidelines 15
extending 15
praised 15
approach 15
withdrawn 15
standard 15
bills 15
probably 15
sharon 15
relatives 15
suburb 15
fought 15
significant 15
toss 15
mali 15
divide 14
debates 14
consecutive 14
idea 14
quarter-finals 14
william 14
cell 14
revolutionary 14
dawn 14
implement 14
waiting 14
g# 14
elite 14
so-called 14
imminent 14
founder 14
rapidly 14
formed 14
khartoum 14
compromise 14
denmark 14
farm 14
shipping 14
qorei 14
weakness 14
delivery 14
vatican 14
engineering 14
assistance 14
recall 14
available 14
espionage 14
chen 14
fidel 14
castro 14
wait 14
hospitalised 14
choice 14
sessions 14
basketball 14
foes 14
p.m. 14
li 14
clinic 14
shadow 14
explosives 14
metro 14
agents 14
permanent 14
sparks 14
tbilisi 14
fasting 14
debts 14
outlook 14
funeral 14
aim 14
affected 14
scrambled 14
doctor 14
southwestern 14
starbucks 14
outlets 14
poisoned 14
stops 14
grave 14
restaurant 14
mountain 14
culture 14
youth 14
stood 14
rating 14
acting 14
reopened 14
tom 14
damaging 14
gasoline 14
competitive 14
rockets 14
completed 14
unveil 14
reeling 14
lying 14
sinks 14
tobacco 14
brand 14
ratified 14
airplane 14
peng 14
narrow 14
bahraini 14
samsung 14
chase 14
brokers 14
reopen 14
restored 14
liberation 14
modest 14
bullying 14
teachers 14
ankara 14
bowler 14
task 14
anxious 14
crippled 14
jumps 14
particularly 14
wrangling 14
assess 14
suggested 14
high-speed 14
waited 14
violating 14
bids 14
freedom 14
resources 14
en 14
congressional 14
balladur 14
saint 14
badawi 14
trucks 14
ugandan 14
southwest 14
namibia 14
played 14
petroleum 14
sampras 14
cypriot 14
adopts 14
based 14
integrity 14
tested 14
wrong 14
condemn 14
questioned 14
airports 14
lithuania 14
thieves 14
africans 14
lose 14
conduct 14
recalled 14
races 14
additional 14
merchant 14
four-month 14
optimism 14
battled 14
pre-tax 14
contingent 14
awards 14
ecuador 14
injection 14
haiti 14
complaints 14
organizations 14
ring 14
warrant 14
hafez 14
arabs 14
tajikistan 14
hebron 14
axel 14
juventus 14
cable 14
burst 14
difficult 14
improved 14
williams 14
briton 14
ran 14
soccer 14
senegal 14
mccartney 14
weakened 14
hsbc 14
reading 14
cases 13
county 13
shortly 13
celtic 13
lee 13
reaching 13
orbit 13
text 13
apparently 13
walked 13
claes 13
first-ever 13
increases 13
done 13
downing 13
sundaravej 13
marriage 13
receives 13
approve 13
pushes 13
lisbon 13
towns 13
govt 13
commandos 13
hurricanes 13
punish 13
ratification 13
carry 13
seats 13
song 13
killings 13
nickel 13
afptv 13
defiance 13
fundamentals 13
scathing 13
confirming 13
commit 13
ice 13
kidney 13
supported 13
receiving 13
exercises 13
baltic 13
noon 13
retired 13
kronor 13
engines 13
volcano 13
operators 13
nick 13
toronto 13
slides 13
year-end 13
joins 13
mahmud 13
longer 13
####-## 13
hitting 13
ceos 13
nearby 13
highs 13
bastia 13
submit 13
zia 13
leicester 13
mikhail 13
exit 13
businessman 13
finances 13
shoot 13
contest 13
robbery 13
awaits 13
booming 13
prop 13
last-ditch 13
crippling 13
dark 13
unhcr 13
turkmenistan 13
widely 13
postbank 13
no-confidence 13
boutros 13
boutros-ghali 13
trend 13
` 13
spend 13
actor 13
visited 13
memorial 13
encouraged 13
halted 13
hu 13
priest 13
journey 13
believes 13
sergei 13
edberg 13
buildings 13
ministries 13
bribery 13
salary 13
manage 13
mild 13
elect 13
atherton 13
cap 13
detainee 13
widespread 13
finding 13
teenager 13
paving 13
gcc 13
racing 13
targeted 13
hammer 13
economics 13
rains 13
defiant 13
immediately 13
armenia 13
version 13
ex-president 13
vessels 13
senators 13
declaration 13
axe 13
norman 13
politicians 13
thin 13
prove 13
citigroup 13
warburg 13
advantage 13
placed 13
steve 13
attempted 13
junior 13
mounts 13
greg 13
follow 13
expanding 13
schedule 13
killers 13
unite 13
coordinated 13
roads 13
nairobi 13
pentium 13
jaap 13
hoop 13
scheffer 13
drastic 13
arm 13
payment 13
spurs 13
solana 13
room 13
rather 13
missiles 13
unexpected 13
artists 13
bandits 13
temporarily 13
ministerial 13
possibility 13
escalating 13
ordeal 13
volkswagen 13
vw 13
flee 13
flares 13
flagship 13
sole 13
paper 13
torture 13
sumatra 13
malawi 13
firefighters 12
surgeon 12
hill 12
tribute 12
editor 12
klaus 12
presidents 12
society 12
larsson 12
tony 12
lake 12
forming 12
decree 12
summary 12
opponents 12
prosecution 12
dire 12
convoys 12
secured 12
andy 12
sinking 12
prompting 12
skepticism 12
events 12
redeployment 12
surges 12
dance 12
abuse 12
developments 12
stronger 12
high-profile 12
slight 12
joe 12
frenchman 12
question 12
mulls 12
widening 12
stones 12
copyright 12
dropping 12
fined 12
firmed 12
inciting 12
noon-hour 12
proceedings 12
steep 12
possession 12
post-taliban 12
heritage 12
suspending 12
busy 12
sun 12
vital 12
shockwaves 12
controversy 12
tropical 12
instability 12
purchase 12
pleaded 12
cooperate 12
reaches 12
buried 12
active 12
s. 12
grows 12
yasushi 12
overall 12
tougher 12
stores 12
hiroshima 12
####-#### 12
three-year 12
virtually 12
measure 12
am 12
luxembourg 12
reopens 12
galveston 12
houston 12
thomas 12
levels 12
listed 12
burning 12
mulling 12
la 12
anti- 12
qaeda 12
reconstruction 12
gesture 12
spying 12
douglas 12
doomed 12
james 12
knee 12
outbreak 12
declaring 12
icon 12
haul 12
wildlife 12
acquisition 12
statistical 12
deployment 12
urals 12
girls 12
rubber 12
frontier 12
live 12
examine 12
lire 12
praise 12
native 12
javier 12
unicef 12
assassination 12
duties 12
extremely 12
distress 12
choppy 12
lies 12
mohamed 12
nfl 12
establishment 12
young-sam 12
strife-torn 12
partnership 12
shane 12
nepalese 12
gore 12
newly 12
required 12
encourage 12
confusion 12
romanian 12
appeals 12
scale 12
mend 12
recorded 12
bounced 12
zimbabwean 12
divisions 12
sound 12
southeast 12
greater 12
kazakhstan 12
terrorists 12
ouster 12
circuit 12
lithuanian 12
ubs 12
###-million-dollar 12
asylum 12
argentine 12
charter 12
damaged 12
villages 12
platform 12
dalai 12
lama 12
hang 12
acts 12
shipment 12
sierra 12
publication 12
smith 12
crises 12
easing 12
parliamentarians 12
depression 12
mad 12
queensland 12
onto 12
earth 12
nato-led 12
establish 12
recognition 12
linking 12
eagle 12
assad 12
insists 12
a### 12
tower 12
runway 12
ferguson 12
thorny 12
richard 12
slips 12
lottery 12
strict 12
condition 12
files 12
jobless 12
petrol 12
holocaust 12
odierno 12
petraeus 12
savings 12
blogger 12
imposing 12
rushed 12
andrew 12
wild 12
attorney 12
zambia 12
immunity 12
bentsen 12
archbishop 12
triple 12
kumaratunga 12
albania 12
hyundai 12
acquired 12
forum 12
embezzlement 11
determined 11
included 11
flew 11
pga 11
tata 11
handover 11
generals 11
privatisation 11
institutional 11
explosions 11
drawn 11
minimum 11
manuel 11
removed 11
strength 11
scoring 11
multi-billion-dollar 11
landed 11
fernando 11
collor 11
display 11
supports 11
strained 11
eritrea 11
equity 11
bout 11
surrender 11
produced 11
munich 11
whom 11
criticises 11
branch 11
taslima 11
producers 11
alija 11
sue 11
boc 11
standards 11
marred 11
tottenham 11
caution 11
implicated 11
disciplinary 11
occupation 11
ma 11
michel 11
#.### 11
judges 11
roma 11
stall 11
jetliner 11
clarke 11
parent 11
recover 11
fa 11
villa 11
midfielder 11
liverpool 11
cultural 11
lockerbie 11
solar 11
reaction 11
fat 11
cat 11
uncertain 11
fundraiser 11
parma 11
wang 11
manmohan 11
acknowledged 11
ambushed 11
congressman 11
triggering 11
emirate 11
tentative 11
note 11
normal 11
propose 11
feet 11
bowl 11
chopper 11
stampede 11
bronze 11
bombay 11
friend 11
peaceful 11
honors 11
supermarket 11
boys 11
options 11
aung 11
twin 11
interbank 11
cholera 11
uzbekistan 11
prepares 11
minor 11
thirteen 11
broad 11
boeing-### 11
perm 11
books 11
palestine 11
jordanian 11
chirac 11
jack 11
animals 11
hanging 11
bangkok 11
intensified 11
aged 11
cook 11
impasse 11
survived 11
complaint 11
edges 11
partial 11
dlr 11
mocking 11
badly 11
militias 11
saleh 11
systems 11
pre-trial 11
automaker 11
princess 11
hammered 11
chissano 11
broadcasting 11
spectacular 11
rifts 11
explosive 11
predecessor 11
express 11
youths 11
dived 11
filing 11
doping 11
peacekeeper 11
willing 11
pavel 11
sao 11
expulsion 11
colonel 11
square 11
centre-right 11
shortage 11
rejecting 11
renews 11
inc. 11
copper 11
nagorno-karabakh 11
brother-in-law 11
possibly 11
dramatically 11
jointly 11
arrival 11
leone 11
places 11
burial 11
snatched 11
jittery 11
dominate 11
helen 11
rampant 11
shedding 11
cutting 11
exchanges 11
guide 11
corporate 11
card 11
formal 11
pacts 11
bourses 11
bujumbura 11
manned 11
motion 11
story 11
transparency 11
sinlaku 11
bottom 11
hassan 11
wage 11
chartered 11
slovenian 11
repatriation 11
simon 11
unidentified 11
quarter-final 11
managing 11
let 11
upper 11
dhaka 11
lord 11
violation 11
shift 11
n. 11
long-term 11
dissidents 11
citing 11
mid-air 11
quebec 11
golan 11
overhaul 11
timorese 11
outcome 11
sure 11
malaria 11
nominated 11
yachtswoman 11
moment 11
mansion 11
pale 11
representing 11
climbed 11
coverage 11
we 11
retirement 11
setback 11
write 11
par 11
athletic 11
records 11
al-fitr 11
craxi 11
manufacturers 11
showdown 11
migrants 11
refinancing 11
elders 10
cracks 10
derivatives 10
sport 10
marry 10
colleague 10
slain 10
kinkel 10
righteous 10
chris 10
hat-trick 10
snap 10
admitting 10
reversing 10
lukashenko 10
chamber 10
publisher 10
braced 10
rips 10
warship 10
blink 10
previously 10
shrinks 10
cigarettes 10
drivers 10
stays 10
false 10
faith 10
conglomerate 10
defensive 10
gerry 10
soil 10
malcolm 10
elects 10
censure 10
shocks 10
banning 10
boxing 10
ahmed 10
twice 10
tonne 10
a.m. 10
bayern 10
knew 10
urgently 10
gunned 10
suggesting 10
foe 10
abolished 10
nationalist 10
bloody 10
warlord 10
abdallah 10
crowd 10
drinks 10
elizabeth 10
risen 10
leeds 10
wholesale 10
iranians 10
casting 10
reynolds 10
hole 10
boosting 10
sicilian 10
investigator 10
le 10
lieutenant-general 10
cope 10
bishops 10
stick 10
postpone 10
prayer 10
announcing 10
agreeing 10
miami 10
playoffs 10
gather 10
slipping 10
driving 10
testing 10
kyle 10
khaleda 10
observed 10
unveiling 10
clan 10
grim 10
hot 10
coffee 10
deepens 10
jacob 10
quality 10
halts 10
fis 10
passing 10
hometown 10
warming 10
arctic 10
quadrangular 10
sectarian 10
canary 10
postpones 10
ward 10
lorry 10
undergo 10
remove 10
stripped 10
howard 10
ex-communist 10
sues 10
crushing 10
carolina 10
testify 10
flooding 10
fleeing 10
overcome 10
finals 10
armstrong 10
buoyed 10
brutal 10
spell 10
wipe 10
proved 10
desperate 10
evacuation 10
executives 10
withdraws 10
improvement 10
exposed 10
today 10
promoting 10
created 10
politically 10
tripoli 10
maradona 10
windows 10
looming 10
beef 10
gorges 10
priority 10
rollercoaster 10
insurers 10
farmers 10
abuses 10
iceland 10
provinces 10
practices 10
describing 10
grouping 10
academic 10
five-day 10
separatism 10
shareholders 10
freeze 10
caretaker 10
choose 10
environmental 10
energy-rich 10
somchai 10
wongsawat 10
luxury 10
barrier 10
reaffirmed 10
aggressive 10
mail 10
subprime 10
bases 10
kadhafi 10
raged 10
outrage 10
lipstick 10
await 10
dominant 10
sustained 10
croat 10
demanding 10
produce 10
yushchenko 10
non 10
houses 10
species 10
danny 10
safrica 10
asia-pacific 10
invites 10
interpol 10
ordering 10
affecting 10
broadcast 10
spiritual 10
appointment 10
openly 10
developed 10
removing 10
respond 10
drag 10
pulling 10
legality 10
teams 10
jihad 10
adb 10
blockade 10
advertising 10
richter 10
boats 10
lethal 10
checks 10
amsterdam 10
wreck 10
visitors 10
repurchase 10
traffickers 10
publishers 10
pan 10
hunted 10
suburbs 10
slovakia 10
stoked 10
actress 10
quitting 10
recalls 10
travellers 10
unfriendly 10
ratifies 10
blaming 10
socialists 10
troubles 10
automakers 10
macedonia 10
operate 10
joseph 10
summoned 10
persuade 10
compound 10
awaiting 10
jakarta 10
shakes 10
clearance 10
consulate 10
chicago 10
embryos 10
individual 10
complained 10
flawed 10
icy 10
pull-back 10
grants 10
proxy 10
nomura 10
pilgrimage 10
mena 10
spurred 10
crawley 10
iranian-backed 10
taxi 10
fbi 10
canal 10
installations 10
haitian 10
ariel 10
bar 10
mega-deal 10
pierre 10
macquarie 10
americas 10
friends 10
bolsters 10
buyer 10
longest-serving 10
equal 10
organizers 10
ramos 10
favorite 10
gdp 10
autissier 10
rome 10
economists 10
warsaw 10
kevin 10
bankers 10
regulation 10
deposit 10
chandrika 10
renault 10
mussa 10
comedy 10
demonstration 10
sever 10
murayama 10
bernhard 10
routes 10
organized 10
historian 10
dictator 10
high-level 10
moroccan 10
barcelona 9
globe 9
deploy 9
winners 9
determine 9
established 9
war-ravaged 9
ball 9
herewith 9
statements 9
airliners 9
johannesburg 9
informed 9
researchers 9
kwazulu-natal 9
twelve 9
sinai 9
amount 9
weapon 9
married 9
frozen 9
quell 9
batting 9
root 9
eritrean 9
squeeze 9
anticipated 9
embargo 9
affair 9
bali 9
tighter 9
gec 9
bigger 9
fix 9
predicts 9
reflect 9
rebuke 9
pro-western 9
refinery 9
shui-bian 9
opener 9
marijuana 9
loyalists 9
newcastle 9
reasons 9
grant 9
landslide 9
bakhtiar 9
month-long 9
rebuilding 9
chile 9
grabs 9
unable 9
toppled 9
medals 9
rovers 9
wimbledon 9
somalis 9
unanimously 9
apartheid 9
wars 9
becomes 9
hospitals 9
hutu 9
tutsi 9
pounded 9
builds 9
robust 9
witness 9
poisoning 9
faithful 9
lindh 9
effective 9
manhunt 9
departure 9
reporting 9
relieve 9
doing 9
throws 9
ingushetia 9
supplying 9
plea 9
listing 9
lucrative 9
semi-finals 9
abandon 9
written 9
door 9
mombasa 9
shipwreck 9
sporadic 9
naked 9
injected 9
ruler 9
owing 9
brokered 9
answer 9
minute 9
strengthened 9
socialism 9
laid 9
drowned 9
metres 9
hung 9
doors 9
impoverished 9
sickens 9
blown 9
standing 9
commitment 9
rammed 9
marched 9
demo 9
comply 9
custody 9
adriatic 9
tim 9
sweets 9
clark 9
rabbi 9
buddhist 9
monk 9
burma 9
attended 9
sack 9
monitor 9
playoff 9
nears 9
kobe 9
dam 9
ideas 9
cartel 9
solve 9
licence 9
cautiously 9
annan 9
findings 9
probing 9
jurors 9
foundation 9
freefall 9
throw 9
weight 9
compensate 9
sixteen 9
gurkha 9
gurkhas 9
mount 9
identity 9
shuts 9
traveling 9
indicated 9
stroke 9
uncertainties 9
consequences 9
refusal 9
balkans 9
stefan 9
residential 9
criticized 9
apparent 9
wire 9
villagers 9
impose 9
flown 9
aceh 9
outlawed 9
duty 9
via 9
limits 9
contested 9
friendly 9
protestant 9
painting 9
skating 9
album 9
renegade 9
laurent 9
silent 9
protestors 9
pitch 9
editions 9
restructuring 9
grain 9
agricultural 9
shattered 9
provisions 9
casablanca 9
swing 9
incentives 9
dealt 9
paramilitary 9
edouard 9
roadside 9
schneider 9
youngest 9
joaquim 9
bailouts 9
dump 9
ericsson 9
ambitions 9
adverse 9
meetings 9
lifeline 9
employment 9
murders 9
broader 9
clients 9
mauritania 9
peruvian 9
communique 9
shoppers 9
highlights 9
rejoin 9
material 9
accidents 9
daniel 9
mulled 9
spot 9
swiftly 9
injects 9
shells 9
veto 9
indicators 9
cessation 9
hijacker 9
attention 9
stalls 9
eldest 9
monitored 9
crushed 9
bound 9
hp 9
nantes 9
often 9
bucks 9
us-backed 9
clinics 9
brian 9
hopefuls 9
exiled 9
hour 9
forecasts 9
acquitted 9
assassinated 9
ranbaxy 9
unesco 9
al-beshir 9
memory 9
bhp 9
ranging 9
cologne 9
correa 9
halloween 9
virus-stricken 9
oscars 9
##-# 9
weighed 9
spreads 9
checkpoint 9
lung 9
kingdom 9
intervened 9
fujitsu 9
hundred 9
anti-terror 9
spate 9
topple 9
prestigious 9
amman 9
centre-left 9
hear 9
reduced 9
rid 9
hanged 9
displaced 9
voices 9
disrupt 9
illegally 9
catching 9
mines 9
arriving 9
multinational 9
firestorm 9
sacks 9
counter 9
aristide 9
barrels 9
delaying 9
protesting 9
convinced 9
facts 9
rural 9
wreckage 9
lease 9
peseta 9
forex 9
bars 9
confederation 9
bust 9
continental 9
ayatollah 9
climb 9
confrontation 9
beauty 9
factors 9
krajina 9
gucci 9
rattled 9
antoine 9
haven 9
bore 9
lloyd 9
gunfire 9
nothing 9
consumption 9
curfew 9
inquest 9
bullets 9
moderately 9
missions 9
soars 9
###-# 9
birmingham 9
managed 9
footballers 9
margaret 9
masters 9
alaska 9
bossi 9
re-election 9
shook 9
why 9
plummets 9
gaming 9
maiden 9
automobile 9
pyramids 9
berkshire 9
hathaway 9
reliable 9
article 9
defender 9
fahd 9
designer 8
high-risk 8
massachusetts 8
widow 8
streak 8
narcotics 8
lashes 8
convince 8
goosen 8
bidding 8
retain 8
makers 8
harry 8
agassi 8
celebrating 8
transatlantic 8
anthony 8
identified 8
automatic 8
township 8
pump 8
eventually 8
surging 8
financiers 8
peninsula 8
regrets 8
benazir 8
.# 8
negative 8
endorses 8
staying 8
romp 8
braces 8
stephen 8
tanzanian 8
swift 8
swissair 8
aggression 8
basic 8
framework 8
items 8
surviving 8
strain 8
mammoth 8
calamity 8
stormy 8
staging 8
shaath 8
distribution 8
suing 8
beer 8
unmanned 8
expresses 8
rallying 8
jaruzelski 8
communist-era 8
revenue 8
ecus 8
holders 8
underground 8
sas 8
contacts 8
encouraging 8
pollution 8
ghanaian 8
compatriot 8
bob 8
autocratic 8
spare 8
cloud 8
rossi 8
pole 8
valencia 8
albert 8
divers 8
courts 8
detonated 8
angela 8
powdered 8
porsche 8
migration 8
handling 8
colonial 8
asset 8
shortages 8
upon 8
ariane 8
frank 8
chernomyrdin 8
mile 8
plagued 8
confirm 8
clears 8
arrangement 8
mull 8
escalated 8
salvation 8
exact 8
effects 8
anti-globalisation 8
counterparts 8
curbing 8
uefa 8
fifa 8
runaway 8
richardson 8
singer 8
developers 8
animal 8
hunts 8
category 8
capacity 8
publishing 8
wedding 8
o.j. 8
roof 8
mahfouz 8
directors 8
yahoo 8
maoists 8
mohammad 8
unicredit 8
reassures 8
cycling 8
trapped 8
eighth 8
ian 8
bosnians 8
rapid 8
enlargement 8
damages 8
crusader 8
post-war 8
retailer 8
theory 8
owen 8
provisional 8
diego 8
seven-month 8
valley 8
helps 8
enforcement 8
reviewing 8
wartime 8
gael 8
paulo 8
jintao 8
alcohol 8
entertainment 8
washed 8
jan 8
neared 8
direction 8
web 8
pflp 8
expect 8
broker 8
rush 8
suitcase 8
immigrant 8
brace 8
financing 8
caracas 8
rands 8
punished 8
mercury 8
occupying 8
fixed 8
futures-linked 8
anxiety 8
institution 8
zones 8
cronies 8
buyers 8
flagging 8
china-made 8
adopt 8
telefonica 8
secessionists 8
donated 8
imprisoned 8
pardon 8
opposes 8
fiat 8
creating 8
miners 8
long-delayed 8
dc-## 8
our 8
neo-nazi 8
high-ranking 8
dates 8
islamists 8
blaine 8
upside 8
ac 8
infants 8
anglicans 8
germain 8
compete 8
lights 8
swimmers 8
torrential 8
deliveries 8
uses 8
branded 8
mere 8
saved 8
cache 8
broadcaster 8
nujoma 8
pete 8
wta 8
unfortunate 8
measuring 8
faster 8
admiral 8
device 8
encounter 8
spike 8
craft 8
bearing 8
juan 8
battleground 8
hercegovina 8
equivalent 8
intellectuals 8
mortar 8
polio 8
franco 8
bernard 8
picks 8
rothschild 8
blind 8
astana 8
multi 8
core 8
colombo 8
factional 8
chuan 8
leekpai 8
estonian 8
latvia 8
naming 8
peace-keeping 8
selloff 8
condemnation 8
all-star 8
furore 8
submarine 8
exchanged 8
hewlett-packard 8
eds 8
regulations 8
everton 8
chevron 8
flashpoint 8
dock 8
christine 8
youtube 8
geagea 8
sons 8
sight 8
chretien 8
egyptians 8
victoria 8
pumping 8
francisco 8
preventing 8
distributor 8
heating 8
gripping 8
long-running 8
fake 8
volvo 8
declining 8
murderer 8
yield 8
word 8
conde 8
seas 8
moon 8
revamp 8
andrei 8
kozyrev 8
businessmen 8
participants 8
saab 8
observation 8
merge 8
pool 8
modern 8
ex-soviet 8
riskiest 8
biggest-ever 8
marshall 8
zedillo 8
overturned 8
superjumbo 8
yar 8
adua 8
safer 8
petersburg 8
destroy 8
graham 8
reducing 8
jpmorgan 8
million-dollar 8
tie 8
assailants 8
avalanche 8
ravaged 8
archaeologists 8
dig 8
diana 8
spring 8
films 8
matter 8
highlighting 8
sen 8
guides 8
criminals 8
cadbury 8
location 8
gia 8
intention 8
gross 8
wealth 8
martial 8
jansa 8
blows 8
right-wing 8
onslaught 8
chad 8
networks 8
duchess 8
carnage 8
merson 8
italia 8
extension 8
averting 8
waste 8
confront 8
count 8
cannes 8
phones 8
magistrates 8
fish 8
standings 8
mystery 8
crews 8
chadian 8
wrapped 8
gunshots 8
mediate 8
arguing 8
jansher 8
rudd 8
economies 8
whipped 8
sandisk 8
deeply 8
opera 8
shaky 8
thatcher 8
generally 8
subsidies 8
monarchies 8
carriers 8
tons 8
aftermath 8
ceremonies 8
brad 8
amr 8
mourning 8
chocolate 8
roots 8
presses 8
non-combat 8
spotlight 8
essen 8
cancel 8
dealer 8
beatlemania 8
rioting 8
els 8
by-elections 8
filipino 8
modahl 8
seizinger 8
gabon 8
sunken 8
overwhelmingly 8
mall 8
sos 8
texaco 8
standoff 7
either 7
takeoff 7
vow 7
blacklist 7
minya 7
flies 7
barred 7
wicket 7
bros 7
hari 7
puttar 7
potter 7
magnus 7
st. 7
shalikashvili 7
dong 7
newcomer 7
willy 7
icelandic 7
formation 7
pursuit 7
caucasian 7
donate 7
engage 7
head-on 7
serve 7
heightened 7
angrily 7
smoking 7
transvaal 7
florida 7
explode 7
zurich 7
flower 7
montreal 7
liberals 7
flattened 7
texan 7
biting 7
motions 7
kurds 7
denying 7
devastated 7
nabil 7
compact 7
photos 7
tribesmen 7
opponent 7
finishing 7
deadliest 7
java 7
hamburg 7
scandinavian 7
enrichment 7
savers 7
behalf 7
britons 7
passes 7
vp 7
faltering 7
koreans 7
sued 7
chilling 7
cape 7
accra 7
patch 7
thais 7
forms 7
widens 7
m 7
dortmund 7
values 7
billion-euro 7
loomed 7
santos 7
defied 7
generation 7
maintained 7
telecoms 7
implementing 7
musician 7
spreading 7
packed 7
brazen 7
bavarian 7
heir 7
royalty 7
rescues 7
fisheries 7
defectors 7
casualty 7
versus 7
selection 7
sail 7
programme 7
discipline 7
mutiny 7
grips 7
policymakers 7
despair 7
rip 7
attacking 7
flurry 7
havoc 7
throwing 7
donors 7
heavyweight 7
sensitive 7
jericho 7
denounce 7
smash 7
poachers 7
extremism 7
apart 7
factories 7
effectiveness 7
benchmark 7
semi-final 7
inaugural 7
spiralled 7
comes 7
ill-fated 7
aex 7
destined 7
collapsing 7
dominique 7
strauss-kahn 7
exploratory 7
add 7
short-term 7
posed 7
beyond 7
evacuations 7
ex-communists 7
demonstrate 7
newest 7
moody 7
juncker 7
laureate 7
hospitalized 7
pioneer 7
catastrophe 7
causes 7
check 7
contender 7
overs 7
edition 7
shelling 7
registered 7
kidnapping 7
drcongo 7
campus 7
cubans 7
anti-israeli 7
crowded 7
competitors 7
dubbed 7
bizarre 7
signals 7
stemming 7
emerging 7
deteriorating 7
convulsions 7
contained 7
compulsory 7
mediator 7
outweighed 7
ratify 7
rebellion 7
clinch 7
pti 7
taxpayers 7
staggering 7
hesitant 7
bryant 7
changing 7
alongside 7
kilograms 7
kind 7
pc 7
woolsey 7
multi-million 7
bitterly 7
beach 7
margin 7
last-minute 7
mouth 7
rallies 7
dictatorship 7
heights 7
medal 7
embarked 7
dips 7
opposing 7
ex-yugoslavia 7
money-laundering 7
hailing 7
bloodshed 7
no. 7
participating 7
prevention 7
heavily 7
fuelling 7
peak 7
silajdzic 7
paint 7
nkorean 7
drink 7
doubles 7
counting 7
negotiated 7
notorious 7
boon 7
welfare 7
stooping 7
smear 7
makybe 7
diva 7
intends 7
reconnaissance 7
challenged 7
stabilize 7
artillery 7
hinted 7
engine 7
trail 7
thomson 7
mario 7
hangs 7
intense 7
greatest 7
issuing 7
disappointing 7
trees 7
spark 7
models 7
romania 7
budapest 7
myspace 7
discover 7
jim 7
fields 7
steal 7
stayed 7
shareholder 7
alarm 7
fair 7
campaigners 7
stands 7
watched 7
kagame 7
bundesliga 7
smugglers 7
hammering 7
titles 7
tightens 7
firmly 7
pro- 7
inspectors 7
kickstart 7
reiterated 7
wary 7
stiff 7
theft 7
secrets 7
ge 7
gangs 7
appears 7
fujimori 7
reputation 7
missed 7
raymond 7
nasal 7
primary 7
economist 7
repression 7
pesetas 7
contribution 7
radioactive 7
neighbor 7
paying 7
ceo 7
affect 7
wracked 7
entering 7
sum 7
jolted 7
provided 7
campaigns 7
saarc 7
diyala 7
sitting 7
cac-## 7
rajasthan 7
saints 7
papua 7
withdrew 7
pray 7
saakashvili 7
design 7
reveals 7
stokes 7
foiled 7
mid 7
dragged 7
punishment 7
tenders 7
batsmen 7
breath 7
cotton 7
extreme 7
participation 7
lagarde 7
schroeder 7
respected 7
unilateral 7
carbon 7
incoming 7
settler 7
mitsubishi 7
da 7
enable 7
doubled 7
warm 7
supporting 7
rebounding 7
warrants 7
glickman 7
panicked 7
intellectual 7
believers 7
resumption 7
investigates 7
cinemas 7
initiative 7
peril 7
chances 7
scientist 7
nicaragua 7
stomach 7
blockaded 7
interference 7
bosses 7
drives 7
professional 7
genetic 7
customer 7
rear 7
violated 7
vienna 7
legendary 7
robinson 7
deliver 7
oldest 7
float 7
learn 7
indiscriminate 7
spiralling 7
particular 7
sept 7
quote 7
oversee 7
convulsed 7
undersea 7
persons 7
sla 7
upset 7
honored 7
wider 7
h 7
outcry 7
tajik 7
disastrous 7
epidemic 7
fiji 7
congolese 7
dim 7
sweeps 7
regulatory 7
hunter 7
expanded 7
dram 7
renew 7
harare 7
documentary 7
academy 7
kroner 7
overshadowed 7
feuding 7
fines 7
tell 7
breakdown 7
shenzhou 7
volumes 7
hints 7
tore 7
massed 7
adopting 7
bargain-hunting 7
johnson 7
kiev 7
npt 7
farming 7
defuse 7
suppliers 7
stone 7
touring 7
yulia 7
tymoshenko 7
combined 7
ability 7
drilling 7
khamenei 7
buffalo 7
lot 7
parade 7
unharmed 7
reigning 7
yves 7
samoa 7
effectively 7
wireless 7
janez 7
regain 7
benjamin 7
words 7
cells 7
feed 7
#.#-magnitude 7
us-mexico 7
afghans 7
janet 7
artefacts 7
majeure 7
rankings 7
denounces 7
sultan 7
deception 7
pumps 7
jonas 7
reassured 7
boar 7
intervenes 7
isabelle 7
stunned 7
covering 7
athletics 7
castle 7
repair 7
powell 7
tie-up 7
ambassadors 7
inmates 7
completes 7
mainstream 7
treated 7
reflecting 7
stakes 7
cool 7
##:## 7
closely 7
summons 7
fifteen 7
qe# 7
coventry 7
attempting 7
pipelines 7
kennedy 7
pro-government 7
slowed 7
worked 7
studies 7
collect 7
reporter 7
teeth 7
seals 7
gloom 7
quotas 7
seems 7
stopping 7
maldives 7
rightwing 7
stabbed 7
prostitution 7
contracted 7
enterprises 7
inevitable 7
storms 7
bin 7
arson 7
persistent 7
indians 7
retains 7
anglo-dutch 7
burmese 7
tome 7
alan 7
wind 7
demonstrations 7
qantas 7
arcandor 7
sporting 7
mid-afternoon 7
brunei 7
stuck 7
bird 7
sluggish 7
arguments 7
m# 7
ruinous 6
cracked 6
burned 6
escalation 6
shown 6
tracks 6
lakers 6
lone 6
open-air 6
urgency 6
nhl 6
fundamental 6
uphold 6
church-state 6
carl 6
##-run 6
steer 6
palmeiras 6
successive 6
commanding 6
corridor 6
andre 6
aussie 6
bet 6
tibetan 6
tibet 6
secretary-general 6
enormous 6
conflicts 6
five-nation 6
writing 6
rescuing 6
thirty 6
reliance 6
inching 6
rolling 6
practice 6
#.#-# 6
rein 6
something 6
xi 6
blankets 6
pleads 6
razing 6
trafalgar 6
polling 6
clock 6
antarctica 6
splits 6
tree 6
mello 6
trigger 6
approving 6
crops 6
##st 6
stormed 6
marignane 6
retained 6
wbc 6
lu 6
brent 6
##-dollar 6
burgeoning 6
multiple 6
concluded 6
abb 6
coulthard 6
especially 6
wide-ranging 6
larger 6
busiest 6
believe 6
buses 6
exporter 6
satisfied 6
sudden 6
make-up 6
breakup 6
piece 6
auguin 6
five-year-old 6
schwarzenegger 6
balkan 6
belarussian 6
uprising 6
disney 6
born 6
philip 6
declare 6
discrimination 6
resigning 6
commons 6
exchequer 6
kenneth 6
priceless 6
bites 6
components 6
eduardo 6
founded 6
aston 6
survives 6
sister 6
whole 6
raging 6
replacing 6
louise 6
casts 6
massacres 6
##,###-dollar 6
tijuana 6
santa 6
fearful 6
feeling 6
mayhem 6
anti-us 6
chair 6
surrounded 6
hostile 6
stepping 6
secretly 6
upbeat 6
tahiti 6
nautical 6
odyssey 6
quarterback 6
nature 6
smashed 6
elephants 6
rolls-royce 6
bmw 6
efficiency 6
monaco 6
neutral 6
zambian 6
nxp 6
bethlehem 6
bulldozers 6
smuggled 6
publicly 6
alzheimer 6
qualify 6
undergoing 6
whitewater 6
irregularities 6
rockslide 6
tops 6
registers 6
releasing 6
swooped 6
principle 6
srebrenica 6
forensic 6
lady 6
aerospace 6
concrete 6
abacha 6
detailed 6
andorra 6
roberto 6
robbers 6
normally 6
sheet 6
plagiarizing 6
principles 6
selected 6
smaller 6
detail 6
renamo 6
dreams 6
acquiring 6
#hr 6
##min 6
##sec 6
considers 6
cycle 6
cited 6
chronology 6
chief-of-staff 6
nottingham 6
requirements 6
pending 6
intervene 6
undermining 6
tesco 6
dealings 6
weighing 6
barely 6
al-ahram 6
un-backed 6
biscuits 6
college 6
unconstitutional 6
feud 6
grabbed 6
fortune 6
nabbed 6
celebrates 6
manama 6
screening 6
highlight 6
fog 6
hashish 6
kofi 6
absentia 6
madam 6
itt 6
karamay 6
conducted 6
pursuing 6
worse 6
heat 6
seem 6
thing 6
bavaria 6
replaced 6
replaces 6
nasa 6
ventures 6
kurd 6
cameroon 6
colleagues 6
illicit 6
synagogue 6
thousand 6
clampdown 6
all-time 6
understanding 6
sam 6
bribes 6
timber 6
logging 6
reaffirms 6
stress 6
master 6
clothing 6
haris 6
attract 6
privatization 6
reopening 6
ansa 6
ipanema 6
hypo 6
commonwealth 6
sisulu 6
qualifying 6
pig 6
self-styled 6
turbulent 6
unpaid 6
percentage 6
employee 6
treasures 6
window 6
corn 6
refuse 6
abdic 6
zastava 6
blanket 6
airspace 6
antara 6
boom 6
tendered 6
dengue 6
hillary 6
hrovat 6
centrist 6
strife 6
cease 6
unacceptable 6
errors 6
president-elect 6
apple 6
guangdong 6
ramps 6
tightened 6
ditch 6
gm 6
kicks 6
arcelormittal 6
rafael 6
freezing 6
ciba 6
#.#-billion-dollar 6
basf 6
eduard 6
matters 6
overthrow 6
gul 6
pressured 6
churned 6
singles 6
retaliation 6
guidelines 6
saatchi 6
undermined 6
laundering 6
sat 6
beaten 6
mullen 6
sophia 6
mauritanian 6
origin 6
bag 6
nablus 6
underwent 6
widened 6
expose 6
bold 6
burden 6
eddie 6
gregan 6
storming 6
sofia 6
suffers 6
asean 6
exclusion 6
narrows 6
chalked 6
felt 6
pack 6
raft 6
passports 6
sg 6
unemployed 6
intensify 6
comment 6
drastically 6
cardoso 6
execute 6
related 6
png 6
junren 6
quest 6
estranged 6
mahathir 6
att 6
boards 6
sin 6
privacy 6
rounded 6
riviera 6
transformed 6
experienced 6
bulls 6
processing 6
converged 6
ownership 6
hi-tech 6
spree 6
cigarette 6
contagion 6
mississippi 6
aurora 6
healthy 6
dave 6
masked 6
quizzed 6
detroit 6
dissolved 6
sperm 6
autonomous 6
greeks 6
pave 6
declined 6
engineer 6
selectors 6
clearing 6
erupts 6
rts 6
lobby 6
fetched 6
informal 6
lula 6
silva 6
followers 6
vowing 6
scooped 6
defector 6
wolseley 6
docked 6
convene 6
extradite 6
nov 6
banesto 6
garcia 6
ryanair 6
nicaraguan 6
sacking 6
observe 6
astronomers 6
stole 6
bullet 6
debated 6
curbs 6
type 6
male 6
rings 6
structure 6
weakening 6
consult 6
keating 6
patients 6
missionaries 6
accepting 6
fast-moving 6
fares 6
walesa 6
stabilization 6
leaking 6
counts 6
kilogrammes 6
accession 6
offences 6
sprint 6
dream 6
gingrich 6
simmering 6
hurting 6
comprehensive 6
alleging 6
wine 6
kuchma 6
umaru 6
cole 6
neck 6
self 6
##-megabit 6
pressures 6
indicating 6
reply 6
pregnant 6
alex 6
torn 6
probed 6
longest 6
innocent 6
drunk 6
explore 6
escalates 6
sanders 6
bugging 6
mauresmo 6
parliamentarian 6
guantanamo 6
sana 6
firebombing 6
limbo 6
commodities 6
surveys 6
commando 6
fertilizer 6
shoes 6
slamming 6
interrupted 6
deportivo 6
tri-series 6
mediating 6
suharto 6
revise 6
leo 6
lock 6
unfairly 6
non-proliferation 6
franjo 6
w 6
heated 6
stimulate 6
flooded 6
attracting 6
penalties 6
triumph 6
burns 6
hun 6
reactor 6
mean 6
baa 6
gatwick 6
borrow 6
recoup 6
kicked 6
mob 6
cement 6
worsened 6
rocky 6
illingworth 6
loose 6
gone 6
citizenship 6
flames 6
horn 6
streisand 6
c 6
compliance 6
shaking 6
distance 6
condoms 6
stamping 6
wear 6
fathers 6
joke 6
indoor 6
served 6
frustration 6
##-percent 6
##-billion-dollar 6
warships 6
faroe 6
assured 6
ransom 6
estimates 6
souness 6
locked 6
heroes 6
arrangements 6
foot 6
submitted 6
niekerk 6
pilgrims 6
rough 6
easier 6
sink 6
sweep 6
architect 6
illness 6
flags 6
edf 6
persecution 6
escort 6
... 6
tragedy 6
chelsea 6
us-based 6
alternative 6
lemond 6
senegalese 6
scrambles 6
slept 6
voicing 6
celebration 6
five-year 6
posting 6
ecuadoran 6
reverse 6
gonzalez 6
statoil 6
dean 6
rusk 6
achieving 6
premature 6
duma 6
ham 6
supervision 6
theater 6
associated 6
utility 6
abu 6
oecd 6
background 6
anti-dumping 6
promising 6
solomon 6
counterweight 6
one-year 6
unearthed 6
miguel 6
furious 6
plants 6
favorites 6
scream 6
snub 6
permit 6
envoys 6
breast 6
shrink 6
outlaw 6
grab 6
god 6
misunderstanding 6
racist 6
meciar 6
homeland 6
plantation 6
tunisian 6
imam 6
smallest 6
galilee 6
slashing 6
brings 6
dana 6
perino 6
catch 6
failures 6
emir 6
mumbai 6
trygg-hansa 6
treason 6
handle 6
yellow 6
preparations 6
high-security 6
balks 6
tomiichi 6
container 6
martyn 6
contenders 6
oversight 6
vision 6
sub 6
shrimp 6
destination 6
includes 6
hughes 6
jets 6
license 6
glasgow 6
repatriate 6
holland 6
hagupit 6
daimler 6
knife-wielding 6
spirit 6
home-made 6
guru 6
gkn 6
face-to-face 6
tuna 6
kouchner 6
earns 6
extraordinary 6
deportees 6
botswana 6
brain 6
prost 6
managers 6
plastic 6
dinner 6
recognized 6
suisse 6
pride 6
longtime 6
hitchhiker 6
rehabilitation 6
ss 6
candidacy 6
alone 6
srinagar 6
reprieve 6
clandestine 6
eon 6
arts 6
joycelyn 5
fatal 5
presenting 5
spring-summer 5
assassins 5
boston 5
argun 5
excerpts 5
sutton 5
memories 5
myung-bak 5
pows 5
dissent 5
remainder 5
tornado 5
studio 5
warner 5
umpire 5
retrial 5
lao 5
telegram 5
aziz 5
portrait 5
auctioned 5
round-the-clock 5
installation 5
gene 5
professor 5
amazon 5
donates 5
witnessed 5
clamp 5
toughen 5
indicator 5
bcci 5
shocked 5
dismissal 5
anti-christian 5
afloat 5
icrc 5
harper 5
dividend 5
stunning 5
posing 5
accepts 5
phnom 5
penh 5
millionaire 5
challenger 5
raced 5
destabilise 5
hidden 5
touches 5
wojciech 5
slash 5
exceed 5
exception 5
lme 5
laying 5
three-time 5
mclaren 5
slovak 5
risky 5
views 5
insufficient 5
resolving 5
strait 5
methodically 5
classmates 5
poison 5
restart 5
arnold 5
sorry 5
domino 5
foul 5
rolled 5
francis 5
brass 5
firmness 5
praises 5
whip 5
andreas 5
shahpur 5
minorities 5
ny 5
dug 5
guardian 5
specific 5
strayed 5
electrical 5
fault 5
banda 5
users 5
zulu 5
buthelezi 5
kirkuk 5
luanda 5
dos 5
condom 5
unexpectedly 5
debacle 5
ina 5
fowler 5
mitchell 5
seizing 5
deemed 5
eurostar 5
aspirations 5
wfp 5
hilary 5
rifles 5
snip 5
cord 5
parachutes 5
aden 5
desperately 5
commerzbank 5
kilometre 5
duel 5
aiding 5
bordering 5
anti-india 5
ex-premier 5
benefits 5
market-boosting 5
odds 5
withdrawing 5
inter-clan 5
inmate 5
slum 5
ivorians 5
greenland 5
orissa 5
definitive 5
hardware 5
absent 5
donald 5
tusk 5
adoption 5
unfair 5
ignore 5
crossings 5
principality 5
honduras 5
language 5
movies 5
stripping 5
brokerage 5
liquidate 5
enters 5
collaborating 5
labored 5
pull-out 5
chapter 5
magazines 5
newly-elected 5
naguib 5
glory 5
bit 5
catastrophic 5
billy 5
consolidate 5
plummet 5
guest 5
concerted 5
amounted 5
expensive 5
securing 5
tarmac 5
bowlers 5
nosedive 5
lance 5
overcame 5
puntland 5
lull 5
sabotage 5
discs 5
###-strong 5
provoked 5
footballer 5
gloomy 5
rifle 5
lima 5
ninth 5
likened 5
likens 5
samir 5
stated 5
condemning 5
handing 5
twenty-two 5
fished 5
touch 5
razed 5
orthodox 5
spanair 5
cowboys 5
negligence 5
inject 5
smashing 5
assails 5
equipped 5
presided 5
concerning 5
failings 5
ratings 5
bow 5
admit 5
sergio 5
pinheiro 5
indirect 5
shortfall 5
heidi 5
fame 5
belongs 5
casino 5
churches 5
slowly 5
marines 5
older 5
enjoy 5
cult 5
makeover 5
theologian 5
anything 5
dividing 5
bouncing 5
explanation 5
obstacles 5
filled 5
kirchner 5
post-apartheid 5
knock 5
forcibly 5
year-old 5
discovery 5
sect 5
n 5
copenhagen 5
poet 5
resist 5
psychological 5
sheds 5
declines 5
cash-strapped 5
closed-door 5
moamer 5
roller-coaster 5
shenzhen 5
simple 5
phony 5
loyal 5
ousting 5
slower 5
denver 5
sponsor 5
flemington 5
decades-old 5
code 5
saving 5
okay 5
reservations 5
conditional 5
strasbourg 5
disappeared 5
drc 5
notably 5
searched 5
laboratory 5
share-out 5
sniping 5
hail 5
masse 5
inspection 5
estimate 5
eurostat 5
delivered 5
petition 5
mosul 5
vreni 5
influential 5
glitnir 5
mozambican 5
distribute 5
richest 5
joaquin 5
resurgence 5
bonus 5
hotels 5
allan 5
deliberate 5
proper 5
damning 5
heal 5
materials 5
transportation 5
consolidated 5
tutsis 5
unspecified 5
discotheque 5
shoot-out 5
ankle 5
fit 5
section 5
otto 5
plight 5
smoke 5
dog 5
premiere 5
ticket 5
druze 5
elysee 5
undergoes 5
different 5
victories 5
numbers 5
paceman 5
tumbling 5
sweet 5
###,###-dollar 5
treasurer 5
transferred 5
objections 5
stealing 5
populated 5
shop 5
obtain 5
tunisia 5
dmz 5
surprised 5
forests 5
winger 5
osaka 5
reinforced 5
homosexual 5
resulting 5
repayment 5
wallabies 5
sovereign 5
disclosed 5
architecture 5
foster 5
speaking 5
timetable 5
steam 5
prevented 5
bodyguard 5
educational 5
three-month 5
authoritarian 5
expels 5
pledging 5
pays 5
contamination 5
gripped 5
abkhaz 5
resulted 5
agf 5
warhol 5
armenian 5
emails 5
eavesdropping 5
mohamad 5
sickening 5
sidon 5
mikheil 5
leap 5
ca 5
gap 5
walker 5
qualifier 5
federico 5
marine 5
coral 5
whatever 5
meat 5
plc 5
quota 5
infected 5
jumping 5
climbdown 5
duncan 5
heaviest 5
piraeus 5
telekom 5
billing 5
defying 5
ordinary 5
cheapest 5
retract 5
stumbling 5
emissions 5
volatility 5
upholds 5
ortega 5
drifted 5
confiscated 5
alps 5
loaned 5
firebrand 5
fearing 5
bracing 5
emmy 5
masses 5
tapping 5
bombardment 5
achieve 5
upwards 5
imperial 5
hans 5
interfering 5
safeguard 5
hide 5
fold 5
isolated 5
switch 5
journal 5
second-largest 5
menu 5
lived 5
backlash 5
beds 5
maintaining 5
requested 5
floyd 5
week-long 5
fixing 5
vulnerable 5
farewell 5
freely 5
louis 5
telephoned 5
counted 5
restrict 5
smuggle 5
##-nation 5
bonnie 5
voter 5
banker 5
benefit 5
engineers 5
ingush 5
volunteers 5
ernesto 5
initially 5
colts 5
rookie 5
disrupted 5
disco 5
spat 5
sufficient 5
explosives-filled 5
slashed 5
dna 5
photo 5
would-be 5
slumps 5
roared 5
bbc 5
random 5
bangalore 5
jensen 5
russian-born 5
eager 5
executions 5
reunion 5
delivering 5
harsh 5
embezzling 5
behavior 5
talking 5
cheered 5
tears 5
signal 5
machines 5
stasi 5
tortured 5
mid-#### 5
shin 5
callaghan 5
kuomintang 5
tries 5
dealing 5
resisting 5
faruq 5
vii 5
cebu 5
separation 5
us-run 5
judiciary 5
meant 5
liquidation 5
credentials 5
legislature 5
flowing 5
highlighted 5
mohammed 5
jackpot 5
corner 5
diversification 5
exporting 5
quartet 5
icc 5
dispel 5
republics 5
tudjman 5
axed 5
savages 5
oliver 5
herzog 5
stretch 5
maori 5
fights 5
militancy 5
harvest 5
pageant 5
railways 5
deepen 5
chocolates 5
sizable 5
recording 5
paolo 5
rangoon 5
chosen 5
bodyguards 5
duo 5
perform 5
glittering 5
chilean 5
reception 5
restarts 5
comrades 5
mostar 5
mosques 5
tizi-ouzou 5
reveal 5
disarray 5
fourteen 5
stewart 5
georges 5
disperse 5
costing 5
fernandez 5
disappearance 5
speeding 5
wrecked 5
serge 5
hague 5
venus 5
fillon 5
bickering 5
tied 5
solutions 5
italians 5
forza 5
pinay 5
strengthening 5
yemenis 5
savimbi 5
deplored 5
organised 5
sword 5
planet 5
hina 5
left-wing 5
miliband 5
abdel 5
israeli-syrian 5
dismasted 5
literary 5
nba 5
#.#-bln-dlr 5
colin 5
misses 5
one-dayer 5
earned 5
#th 5
montenegro 5
habre 5
model 5
alexandria 5
lessons 5
mia 5
invite 5
monastery 5
self-declared 5
nedbank 5
lel 5
crisis-ridden 5
stalling 5
individuals 5
advocates 5
convertible 5
saive 5
drew 5
entity 5
hotspur 5
hell 5
kilos 5
unique 5
seven-under 5
misery 5
defeating 5
predicting 5
exile 5
crossed 5
relative 5
reorganization 5
topped 5
vaccinations 5
syrians 5
roiling 5
corsican 5
gaining 5
burn 5
belly 5
herself 5
swings 5
pensions 5
inventories 5
gear 5
propaganda 5
paz 5
sutherland 5
tomb 5
australians 5
joy 5
moments 5
policyholders 5
voice 5
hikes 5
revival 5
external 5
festivities 5
wamu 5
instant 5
sibling 5
goya 5
picasso 5
depressed 5
disagreed 5
umberto 5
beshir 5
engulfed 5
horse 5
fireworks 5
superstar 5
underpants 5
dancing 5
drunken 5
lands 5
defrauding 5
anti-tank 5
pac 5
durable 5
finger 5
regret 5
teenage 5
seemed 5
budding 5
au 5
revenues 5
embroiled 5
bettino 5
teacher 5
chi 5
hiding 5
charging 5
clubs 5
rifkind 5
tin 5
oj 5
obtained 5
hybrid 5
ipr 5
tsunami 5
santiago 5
boarded 5
fox 5
nbc 5
three-week 5
pro-kurdish 5
brigade 5
permission 5
stumbles 5
lyonnais 5
instruments 5
semiconductor 5
terminated 5
flag-carrier 5
dispatch 5
controlled 5
responsibilities 5
skilled 5
endorse 5
none 5
triangular 5
're 5
inferno 5
counterfeit 5
workforce 5
digging 5
magnate 5
trawler 5
wings 5
prisons 5
###cc 5
choppers 5
nine-month 5
disarm 5
motema 5
totalling 5
throat 5
liechtenstein 5
reich 5
playwright 5
re 5
southeastern 5
astronaut 5
decisive 5
enjoying 5
slapped 5
breaching 5
powered 5
halifax 5
sufferers 5
namibian 5
canterbury 5
laden 5
stuttgart 5
daytime 5
assailed 5
thyssen 5
drown 5
tikrit 5
hawkish 5
uproar 5
g 5
runner 5
creditors 5
isolate 5
high-tech 5
pink 5
carla 5
fatigue 5
ezer 5
weizman 5
karen 5
deported 5
extermination 5
fractious 5
waugh 5
gizenga 5
ghana 5
anti-semitic 5
claus 5
pre-holiday 5
okayo 5
buffet 5
trio 4
consultative 4
openness 4
kilmarnock 4
shines 4
bogota 4
retief 4
vijay 4
iron 4
coordinate 4
sino-british 4
importance 4
swore 4
bertrand 4
no-fly 4
goering 4
privatise 4
okays 4
yale 4
flailing 4
follows 4
doubtful 4
vat 4
devoted 4
smokers 4
helsinki 4
downfall 4
column 4
anti-semitism 4
incomes 4
brightened 4
marie 4
break-up 4
rsf 4
else 4
romped 4
bea 4
dvd 4
fuels 4
makeshift 4
full-scale 4
sabena 4
begged 4
successfully 4
arch 4
wish 4
testimonies 4
bones 4
unilaterally 4
make-or-break 4
asmara 4
fatally 4
kickstarted 4
minimize 4
painful 4
commodity-related 4
coaches 4
cheats 4
sticks 4
rounds 4
dipping 4
lower-than-expected 4
liu 4
cnn 4
refining 4
dampen 4
nz 4
encouragement 4
procedures 4
anew 4
lotteries 4
lure 4
zanu-pf 4
hears 4
extent 4
ultra-nationalist 4
radicals 4
waterloo 4
architects 4
woodward 4
thrashing 4
may-july 4
sylvia 4
eder 4
betting 4
rubin 4
gunshot 4
disarming 4
hotline 4
jean-claude 4
kris 4
lover 4
sealed 4
lambasted 4
d'etat 4
ballots 4
jolt 4
valentino 4
attendants 4
unanimous 4
foundered 4
revelations 4
loom 4
particle 4
collider 4
cern 4
dismantled 4
indefinitely 4
averted 4
earn 4
anti-mafia 4
palermo 4
roll 4
throne 4
upward 4
top-heavy 4
exporters 4
purposes 4
notes 4
scandal-hit 4
dominance 4
devaluation 4
complexes 4
spin 4
complicated 4
sailors 4
revered 4
marino 4
kansas 4
pit 4
smooth 4
artificial 4
chains 4
belief 4
rolls 4
bermuda 4
swap 4
lusaka 4
twenty 4
selective 4
dutchman 4
emergency-ruled 4
blueprint 4
downtown 4
qualified 4
fiorentina 4
warfare 4
therapy 4
confidential 4
update 4
bruce 4
springsteen 4
dating 4
easy 4
glacier 4
alarming 4
snowballs 4
exhumed 4
moslem-led 4
slated 4
build-up 4
speculative 4
resuming 4
original 4
sani 4
colon 4
lear 4
endangered 4
dismantle 4
famed 4
transsexual 4
denouncing 4
peabody 4
robber 4
imprisonment 4
crossfire 4
ravaging 4
girds 4
liaison 4
floor 4
iconic 4
nancy 4
drummer 4
travis 4
barker 4
twenty-one 4
birdies 4
eurogroup 4
claude 4
forestry 4
quayle 4
hackers 4
phenomenon 4
hosted 4
npc 4
super-giant 4
looted 4
us-india 4
dumping 4
monopoly 4
recommended 4
bayo 4
scratching 4
touted 4
authorised 4
intent 4
sapped 4
ravages 4
hostage-taking 4
strapped 4
willingness 4
resolutions 4
sexually 4
assaulting 4
mega 4
silk 4
theo 4
waigel 4
sailed 4
completing 4
lifelong 4
deng 4
listen 4
mediated 4
yeboah 4
timeline 4
chernobyl 4
berth 4
necessary 4
balls 4
brushed 4
rape 4
booed 4
poorly 4
incorrect 4
cali 4
paralysing 4
scandals 4
abysmal 4
speculators 4
holidaymakers 4
celebrities 4
adults 4
xinjiang 4
aborigines 4
reviving 4
foreign-funded 4
chaotic 4
kuwaitis 4
cheer 4
precious 4
il 4
arrange 4
suggestions 4
tadic 4
mock 4
petra 4
kids 4
jailing 4
kiwis 4
outlines 4
avenge 4
toppling 4
symbol 4
cracking 4
roiled 4
avenue 4
cripples 4
icoast 4
recycling 4
batteries 4
discontent 4
#,###-point 4
prolong 4
saga 4
renoir 4
oppose 4
technological 4
akzo 4
stocked 4
neutralise 4
alcoholic 4
noise 4
doubling 4
singer-composer 4
jobim 4
multi-billion 4
cis 4
email 4
unicom 4
state-controlled 4
walter 4
guangzhou 4
big-cap 4
anxiously 4
endanger 4
intra-day 4
vodafone 4
raiders 4
shunned 4
epic 4
turkmen 4
map 4
indecent 4
zimbabweans 4
fikret 4
expiry 4
scooping 4
confessed 4
translator 4
gruesome 4
post-independence 4
suppression 4
resignations 4
allocate 4
manipulating 4
forthcoming 4
customers 4
arianespace 4
plead 4
inter-korean 4
illusionist 4
toughest 4
benelux 4
lillee 4
almunia 4
generously 4
everything 4
cancellation 4
five-star 4
botham 4
protocol 4
hot-selling 4
iphone 4
dope 4
rodriguez 4
betraying 4
owns 4
suriname 4
rattles 4
chinook 4
hearts 4
courier 4
calendar 4
completely 4
fledgling 4
ignored 4
emerge 4
steelmaker 4
centred 4
cede 4
employer 4
shootout 4
angel 4
patrolled 4
frightened 4
exactly 4
houllier 4
administrative 4
upheld 4
systematic 4
kurdistan 4
karabakh 4
next-generation 4
reserved 4
upgrade 4
accentuated 4
fiercely 4
younis 4
foods 4
badminton 4
mary 4
pierce 4
rafsanjani 4
milestone 4
ranariddh 4
daewoo 4
override 4
respects 4
donkey 4
##.#-percent 4
societe 4
abort 4
supporter 4
donor 4
imported 4
prudential 4
assurance 4
portfolios 4
tours 4
ethics 4
corrupt 4
prado 4
cues 4
snapped 4
chronic 4
wallaby 4
larkham 4
woeful 4
mauritius 4
intelligent 4
expo 4
sikhs 4
narrowed 4
shearer 4
countdown 4
bags 4
venerable 4
six-week 4
contradictions 4
testimony 4
document 4
emphatic 4
magnitude 4
geological 4
anti-drug 4
spared 4
clouds 4
graf 4
martinez 4
fugitive 4
limited-overs 4
pharmaceuticals 4
wrangled 4
edmond 4
difficulties 4
henrique 4
airbaltic 4
flylal 4
orleans 4
birth 4
tool 4
opportunity 4
dedicated 4
bicycle 4
tumbles 4
ain 4
erupt 4
manufacture 4
lawless 4
nets 4
fiefdom 4
dad 4
mahindra 4
bardot 4
saint-tropez 4
reefs 4
shrugged 4
deploying 4
pork 4
proof 4
aspiring 4
hampshire 4
influx 4
tip-off 4
royle 4
blewett 4
plague 4
provider 4
disgraced 4
relaunch 4
gerhard 4
assassinate 4
locals 4
footsteps 4
enhance 4
rollout 4
nano 4
scenes 4
porn 4
hamas-run 4
assures 4
wachter 4
dives 4
retailers 4
giuliani 4
sotheby 4
luiz 4
inacio 4
four-year-old 4
sketches 4
hiked 4
annually 4
grappled 4
laureates 4
flared 4
airlift 4
reversed 4
superpower 4
seychelles 4
fun 4
fright 4
promotion 4
pro-iranian 4
scam 4
uncovered 4
f-## 4
humiliating 4
papandreou 4
forefront 4
sec 4
cox 4
expelling 4
spill 4
overwhelmed 4
castellon 4
chunnel 4
gatting 4
bluechips 4
ici 4
mood 4
weigh 4
lion 4
den 4
leapt 4
non-government 4
ho 4
sponsorship 4
directly 4
authorizes 4
neighborhood 4
multimedia 4
science 4
rumor 4
kicking 4
denial 4
assistant 4
taste 4
explorer 4
dwindling 4
attending 4
take-off 4
interviews 4
lightweight 4
concessions 4
sky 4
underscored 4
hattrick 4
placing 4
focusing 4
risked 4
masturbation 4
surveillance 4
steered 4
scant 4
stark 4
sleaze 4
nan 4
englishman 4
jp 4
violence-wracked 4
anticipation 4
newt 4
militiaman 4
slows 4
swazi 4
vies 4
addressing 4
lend 4
champs-elysees 4
trafficker 4
leonid 4
dismisses 4
hunters 4
page 4
strikers 4
sds 4
beatles 4
rogers 4
maclean 4
dynamic 4
properly 4
revolt-hit 4
experience 4
hefty 4
succeeded 4
stricter 4
biofuels 4
el 4
disciplined 4
eight-month 4
clergy 4
backpacker 4
abidjan 4
t 4
contribute 4
wen 4
sometimes 4
patrick 4
jean-bertrand 4
machine 4
ports 4
documentation 4
miti 4
mekong 4
overtime 4
barry 4
non-resident 4
pippen 4
myskina 4
operational 4
sakharov 4
know 4
irresponsible 4
industrialized 4
chic 4
open-ended 4
two-thirds 4
twisted 4
slumping 4
ammonia 4
encampments 4
hypocrite 4
leasing 4
ilfc 4
indigenous 4
##,###-point 4
webber 4
shoulder 4
happy 4
repeat 4
requests 4
rulers 4
kantor 4
d 4
s 4
demons 4
consensus 4
expands 4
destroys 4
shaped 4
attendance 4
abc 4
festive 4
harbor 4
underwear 4
strongman 4
cathay 4
truth 4
laudrup 4
slim 4
lets 4
studios 4
champagne 4
argument 4
snatch 4
gascoigne 4
caviar 4
refinance 4
asking 4
pre-christmas 4
stockpiles 4
signaling 4
broncos 4
ivanisevic 4
becker 4
batman 4
downgrade 4
weaken 4
pre-dawn 4
elsewhere 4
betancourt 4
minsk 4
chanted 4
match-fixing 4
panamanian 4
fact-finding 4
facilitate 4
defences 4
##-million-dollar 4
marketing 4
ray 4
aussies 4
venue 4
debating 4
maher 4
fraser 4
gunships 4
flashed 4
thirds 4
prompt 4
reason 4
minnesota 4
jumbo 4
restarted 4
mercenaries 4
netanyahu 4
strangled 4
rushing 4
domenico 4
ppr 4
ops 4
maria 4
paralysed 4
veil 4
oppression 4
popocatepetl 4
concentrate 4
couples 4
broaden 4
rafah 4
joint-venture 4
meteorological 4
conflicting 4
correct 4
toy 4
resurgent 4
chef 4
brewer 4
pub 4
flow 4
mladic 4
credited 4
eastward 4
gorge 4
bougainville 4
qaboos 4
breuer 4
railroad 4
battering 4
celebrity 4
settled 4
seismologists 4
oust 4
momentum 4
lengthy 4
secession 4
condolences 4
deceive 4
easily 4
rivers 4
founding 4
opted 4
floats 4
brains 4
al-quds 4
franco-italian 4
dedicates 4
###-### 4
tide 4
simultaneous 4
draws 4
fixture 4
starring 4
variety 4
kgb 4
scoops 4
aga 4
pours 4
remembrance 4
nepali 4
orly 4
bridges 4
mandatory 4
metropolis 4
hindus 4
notched 4
embark 4
renounce 4
corps 4
kok 4
jiawei 4
silver 4
entrenched 4
iss 4
portrayed 4
rift 4
###m 4
mid-october 4
positively 4
relieved 4
scares 4
holes 4
picking 4
fact 4
luton 4
suggests 4
fiction 4
ammunition 4
telephones 4
parked 4
swimmer 4
pose 4
areva 4
westinghouse 4
same-sex 4
seizes 4
captivity 4
senseless 4
rethink 4
joola 4
peugeot 4
shutdown 4
weeklong 4
brush 4
judged 4
bolstered 4
readying 4
engaged 4
liberalisation 4
invincible 4
kosher 4
gamez 4
homeowners 4
monks 4
picture 4
preserve 4
georgy 4
lodged 4
acquits 4
hooligans 4
algerie 4
grisly 4
raleigh-durham 4
promoter 4
pena 4
carey 4
hindu-muslim 4
gujarat 4
skyrocketed 4
booked 4
generations 4
magic 4
venice 4
massively 4
booking 4
defused 4
warhead 4
bloodiest 4
p 4
regulate 4
mini-summit 4
mineral 4
nearing 4
soap 4
app 4
volleyball 4
accompanying 4
lopez 4
bradman 4
fdp 4
expulsions 4
color 4
breakout 4
ink 4
opportunities 4
provoke 4
knocked 4
sony 4
weakens 4
abolish 4
enterprise 4
greed 4
inspect 4
ashfaq 4
kayani 4
wobbled 4
heed 4
pants 4
hopman 4
costa 4
brotherhood 4
nicklaus 4
palmer 4
mcdonald 4
dismiss 4
readiness 4
vibrant 4
###-run 4
searching 4
mcghee 4
revived 4
toddler 4
africanist 4
tavern 4
daring 4
tapped 4
scorecard 4
mastermind 4
schiller 4
delicate 4
hard-man 4
half-hour 4
lendl 4
messages 4
stresses 4
injections 4
anti-poverty 4
balloon 4
trek 4
oregon 4
pictures 4
sufferer 4
albanian 4
pardoned 4
goodwill 4
deter 4
scooter 4
enforce 4
ferries 4
re-elected 4
approaching 4
sahara 4
halting 4
apartment 4
maluku 4
memorabilia 4
systemic 4
symphony 4
investigated 4
bogged 4
minnows 4
somaliland 4
bashar 4
single-day 4
notice 4
motivated 4
thief 4
depth 4
fallujah 4
eubank 4
us-born 4
slew 4
windscreen 4
discussing 4
teetering 4
adidas 4
velika 4
kladusa 4
flesh-eating 4
bandung 4
rotations 4
hearings 4
lowers 4
paedophile 4
robson 4
toys 4
zeller-baehler 4
wealthy 4
calcavecchia 4
von 4
filming 4
champs 4
polluting 4
composer 4
turnaround 4
determination 4
###-metre 4
sinning 4
frenzy 4
bury 4
gunpowder 4
praising 4
credito 4
year-on-year 4
spoke 4
retreat 4
almsick 4
brakes 4
leather 4
afterwards 4
military-ruled 4
kcna 4
pay-tv 4
terry 4
implementation 4
boatpeople 4
cowardly 4
insurgency 4
raided 4
tips 4
diving 4
peacemaking 4
nafta 4
non-european 4
rupert 4
umbrella 4
axa 4
bharti 4
worsens 4
nosedived 4
empty 4
unified 4
sichuan 4
cerberus 4
bubble 4
nissan 4
robbed 4
midamerican 4
constellation 4
couture 4
crystal 4
iranian-american 4
jolie 4
pitt 4
bowe 4
pakistan-based 4
pupils 4
invaders 4
ominous 4
followed 4
downward 4
runners 4
nightmare 4
diocese 4
tcl 4
grenades 4
afula 4
wenger 4
rebut 4
stoppages 4
phil 4
predict 4
lenders 4
watery 4
kfw 4
oneaustralia 4
ronaldo 4
bulgarians 4
migrant 4
tip 4
bordon 4
reinforce 4
boxes 4
beard 4
seng 4
skate 4
barak 4
haunt 4
uphill 4
volkov 4
kafelnikov 4
mufti 4
linke 4
sedition 4
sit-in 4
graves 4
vying 4
scared 4
plug 4
parallel 4
aristocrat 4
various 4
metre 4
diane 4
disrupting 4
unfolding 4
footage 4
marilyn 4
monroe 4
valderrama 4
ivorian 4
katja 4
advertisements 4
adjusted 4
mill 4
kabila 4
novel 4
revolution 4
wright 4
spies 4
hurdle 4
boesak 4
cent 4
thriller 4
mysterious 4
revellers 4
deportation 4
plutonium 4
rio 4
size 4
sharpe 4
stationed 4
earmarked 4
csf 4
ohio 4
auschwitz 4
leaks 4
offenders 4
cohabitation 4
buss 4
reclusive 4
xiamen 4
rossy 4
leak 4
repatriated 4
racetrack 4
goddess 4
mr 4
dujail 4
guardiola 4
barca 4
infection 4
enemies 4
obesity 4
kruger 4
landfall 4
salinas 4
zairean 4
indonesians 4
once-proud 4
indebted 4
honeymoon 4
addiction 4
laos 4
collide 4
tightening 4
in-depth 4
lakeview 4
terrace 4
alstom 4
rainforest 4
diverted 4
galaxy 4
voyage 4
topping 4
ernie 4
emotional 4
spielberg 4
experiment 4
poggiali 4
scott 4
foundations 4
chiang 4
woody 4
allen 4
luggage 4
windsor 4
cow 4
heirs 4
engraving 4
pearl 4
bull 4
trips 4
samurai 4
grewcock 4
wolves 4
phillips 4
interested 4
harding 4
seasoned 3
these 3
romario 3
regarded 3
eligible 3
wed 3
wipes 3
florencia 3
fuelled 3
guardianship 3
woods 3
ore 3
farce 3
hooper 3
corintians 3
protected 3
resupply 3
react 3
verdicts 3
informing 3
thrashed 3
europol 3
patriarch 3
bone 3
crisis-hit 3
stoltenberg 3
desire 3
icons 3
waver 3
fastest 3
leisure 3
composite 3
insee 3
household 3
nawaz 3
sharif 3
defendants 3
faded 3
bogus 3
cgil 3
brighten 3
lisa 3
presley 3
constituent 3
content 3
ayodhya 3
queues 3
bulk 3
affirms 3
daghestan 3
freeing 3
accelerate 3
feat 3
assaults 3
bail-out 3
triggers 3
mini-state 3
drought-hit 3
frank-walter 3
steinmeier 3
goverment 3
addis 3
ababa 3
havana 3
hurricane-hit 3
daimler-benz 3
severely 3
nude 3
third-quarter 3
outpointed 3
argentinian 3
marcelo 3
bruising 3
anti-aids 3
ping 3
line-up 3
collections 3
souvenirs 3
defaults 3
franco-british 3
alsthom 3
asea 3
boveri 3
supervising 3
fonterra 3
tools 3
pen 3
vo 3
kiet 3
tape 3
handily 3
##-man 3
excess 3
life-threatening 3
virtual 3
vanunu 3
disagreements 3
guatemala 3
paradise 3
abandoning 3
expired 3
pesos 3
horror 3
lesbians 3
clive 3
flanker 3
christophe 3
imperialism 3
riyadh 3
super-g 3
tear 3
legalising 3
multi-million-dollar 3
touts 3
crying 3
lunchtime 3
teddy 3
transform 3
intentions 3
blasting 3
maastricht 3
horizon 3
aquino 3
salvador 3
gamble 3
sleiman 3
reid 3
moeller 3
eintracht 3
retire 3
marriages 3
contempt 3
bloomberg 3
civic 3
decides 3
iraq-kuwait 3
jams 3
atom-smasher 3
forever 3
campaigning 3
mangosuthu 3
snubs 3
divorced 3
knowledge 3
unscathed 3
transit 3
amadeus 3
palaces 3
royals 3
customary 3
fire-hit 3
organising 3
frontline 3
underpinned 3
follow-up 3
ansar 3
economically 3
chided 3
teenaged 3
outgunned 3
pounding 3
flirting 3
spur 3
revises 3
lauds 3
indexes 3
elder 3
windsurfer 3
frenchwoman 3
windsurf 3
dolphins 3
montana 3
talker 3
decries 3
sealing 3
one-match 3
alioune 3
blondin 3
beye 3
chiluba 3
semi-conductor 3
ringleader 3
chorus 3
offerings 3
elderly 3
tenor 3
companion 3
westerners 3
factfile 3
quarterly 3
weary 3
evacuees 3
leonard 3
sunshine 3
sophisticated 3
ill-equipped 3
circulation 3
malaga 3
amitabh 3
bachchan 3
explores 3
rob 3
crewmen 3
manageable 3
prague 3
resource 3
kidder 3
londoners 3
homage 3
properties 3
pds 3
hunger-striking 3
arena 3
ems 3
pelosi 3
hispanic 3
crane 3
spinner 3
capsized 3
assidomaen 3
pursues 3
lungs 3
tents 3
tank 3
joel 3
chiapas 3
surprises 3
andhra 3
pradesh 3
sabotaging 3
hubbard 3
allay 3
dedicate 3
intensive 3
collecting 3
crafted 3
greenlights 3
everyone 3
four-member 3
al-sharqiya 3
paisley 3
stages 3
goalless 3
unanswered 3
array 3
glaser 3
continual 3
evicted 3
resettlement 3
anti-qaeda 3
deciding 3
ridiculed 3
soweto 3
gambler 3
philosophy 3
gary 3
crawford 3
spencer 3
supermarkets 3
macau 3
ultra-orthodox 3
plus 3
okocha 3
maurizio 3
gaudino 3
convicts 3
pandemic 3
dallas 3
finalized 3
tag 3
drones 3
groundbreaking 3
yangtze 3
homosexuals 3
nabs 3
lamented 3
konstantin 3
dogged 3
al-akhbar 3
parcel 3
taxation 3
fleiss 3
schoolchildren 3
secede 3
jeff 3
versailles 3
stately 3
churchgoers 3
textile 3
forgotten 3
liver 3
agence 3
france-presse 3
correction 3
hideaway 3
lots 3
jong 3
corrections 3
booted 3
wanting 3
dizzying 3
sense 3
nfp 3
severed 3
administrator 3
steven 3
much-delayed 3
high-flying 3
freak 3
irk 3
cristina 3
fumes 3
flyweight 3
detain 3
qatari 3
auxiliary 3
inspired 3
exemptions 3
travels 3
rode 3
nineteen 3
elements 3
battery 3
resisted 3
olive 3
excessive 3
derail 3
twist 3
crumbled 3
wildcat 3
jean-luc 3
dehaene 3
inflicted 3
resource-rich 3
airbase 3
nkunda 3
snack 3
downplay 3
reacting 3
shanghai-listed 3
plumbed 3
depths 3
tackles 3
aidid 3
wages 3
gangway 3
seattle 3
canadians 3
remit 3
vinci 3
bayerische 3
expires 3
yassin 3
incendiary 3
foreseeing 3
irreversible 3
namibians 3
battlegrounds 3
rump 3
donations 3
curtain 3
contains 3
shakeup 3
six-nation 3
gritty 3
thwarted 3
urska 3
cop 3
slander 3
hostility 3
third-largest 3
soares 3
contradicting 3
daredevil 3
totally 3
nhk 3
communion 3
primate 3
leg-spin 3
julio 3
free-market 3
feast 3
handset 3
t-mobile 3
stun 3
luis 3
mp# 3
bear 3
importers 3
rabbit 3
candies 3
sabre 3
defenders 3
rudolf 3
teenagers 3
woo 3
teen 3
pickup 3
bhumibol 3
adulyadej 3
barracks 3
run-up 3
hutus 3
authorizing 3
impress 3
rai 3
tanjug 3
#-## 3
brisbane 3
gerard 3
shevardnadze 3
bare 3
bihar 3
lends 3
swapo 3
intensifies 3
waqar 3
junk 3
procedure 3
busters 3
maurice 3
monopolies 3
jeopardises 3
kick 3
ballot 3
implicating 3
loyalist 3
aerial 3
anti-islam 3
nile 3
depfa 3
semi-official 3
boycotting 3
jeopardize 3
cites 3
charlton 3
recruit 3
michoacan 3
aborted 3
circus 3
mix 3
destroying 3
emancipation 3
stimulating 3
otherwise 3
downwardly 3
refuge 3
bounces 3
toured 3
homosexuality 3
crept 3
cemetery 3
much-anticipated 3
caledonian 3
slice 3
lecture 3
plummeting 3
multi-national 3
zaragoza 3
designers 3
right-hand 3
intensifying 3
liquidating 3
gathers 3
bullet-proof 3
adjournment 3
anti-abortion 3
avoided 3
mistakes 3
insulting 3
stung 3
prod 3
theology 3
telecommunication 3
malaysians 3
childbirth 3
much-vaunted 3
ensuring 3
thrive 3
conspiracy 3
dispersed 3
protracted 3
newly-crowned 3
gp 3
triumphant 3
privatized 3
vodka 3
harming 3
latvian 3
##-member 3
coordinator 3
maertha 3
#d 3
backtracks 3
climbing 3
laments 3
el-helweh 3
inspections 3
costly 3
jersey 3
anti-missile 3
screaming 3
gunners 3
giant-killing 3
campaigner 3
sharks 3
strengthens 3
hungry 3
hills 3
sculptor 3
packing 3
barbed 3
lavish 3
pared 3
solidere 3
nsw 3
meziane 3
cherif 3
lara 3
brilliant 3
bubonic 3
timothy 3
outlaws 3
hydroelectric 3
disgrace 3
ejup 3
ganic 3
varta 3
volt 3
cruel 3
yak 3
foil 3
fend 3
cutbacks 3
dent 3
lyon 3
juninho 3
heightening 3
populist 3
low-level 3
stave 3
macedonian 3
radar 3
biden 3
judgment 3
zail 3
freezes 3
pornographic 3
mistake 3
gifts 3
kuna 3
lobbyist 3
petrochina 3
allied 3
scientific 3
anarchy 3
existing-home 3
steeper-than-expected 3
lacking 3
coherent 3
counter-terrorism 3
pacesetters 3
lens 3
legislator 3
solemn 3
highest-ranking 3
billiton 3
heinous 3
accurate 3
bowling 3
tignes 3
manslaughter 3
citizen 3
hip 3
once-booming 3
showcase 3
talent 3
vie 3
suspensions 3
micex 3
amateur 3
rows 3
wheelchair-bound 3
ripping 3
clamps 3
capitalized 3
ptt 3
moviegoers 3
parliaments 3
plumbing 3
cheese 3
successes 3
carpet 3
jiang 3
zemin 3
fronts 3
modernize 3
advisors 3
crashing 3
mankind 3
acquittal 3
fraudulent 3
dithers 3
tradition 3
weaponry 3
schoolgirl 3
cheeky 3
jewellery 3
nowhere 3
recommends 3
liquid 3
ngos 3
chan 3
floating 3
inviting 3
self-proclaimed 3
honorary 3
searches 3
government-owned 3
teaching 3
indefinite 3
burundian 3
skier 3
capturing 3
tailspin 3
a.k. 3
antony 3
muddle 3
diners 3
antarctic 3
enniskillen 3
boufarik 3
prosperous 3
gaps 3
pat 3
corp 3
geothermal 3
pence 3
nationalises 3
five-wicket 3
contention 3
lech 3
extortion 3
quite 3
blunder 3
esteem 3
litres 3
spilled 3
outnumber 3
top-notch 3
harris 3
downdraws 3
jordanians 3
ron 3
stalwart 3
corridors 3
criticising 3
near-bankrupt 3
arkansas 3
lacklustre 3
###-bln-dlr 3
collateral 3
spirits 3
underpin 3
lop 3
capitals 3
chaired 3
outraged 3
uncharted 3
accidentally 3
tabloid 3
robbie 3
isle 3
m-net 3
#.#-billion-us-dollar 3
tumor 3
speeds 3
rails 3
debt-ridden 3
decrease 3
greenhouse 3
repeating 3
montoya 3
clerics 3
devon 3
chickenpox 3
borussia 3
knife 3
recurrence 3
benefiting 3
philadelphia 3
phillies 3
cane 3
fergie 3
evasion 3
fiber 3
drowns 3
however 3
abusing 3
diseases 3
antibiotics 3
shoots 3
limelight 3
military-run 3
embarrassing 3
secretive 3
chairing 3
fifty 3
half-year 3
beth 3
interrogation 3
techniques 3
jerry 3
amelie 3
defeats 3
rubble 3
mdc 3
destroyer 3
patriots 3
al-shara 3
bonner 3
raw 3
performances 3
branding 3
fundraising 3
regulated 3
textiles 3
sharia 3
context 3
leotard 3
tenth 3
coruna 3
conditionally 3
eyewitnesses 3
blazes 3
mibtel 3
spawned 3
breed 3
frenzied 3
dangers 3
unnecessary 3
disproportionate 3
gunpoint 3
safari 3
primarily 3
remark 3
mickey 3
skills 3
brazzaville 3
superb 3
convictions 3
cabinet-level 3
globalisation 3
enclaves 3
exclusive 3
anti-inflation 3
normalizing 3
relatively 3
deprive 3
kong-based 3
planting 3
nor 3
commits 3
referred 3
ex-yugoslav 3
copy 3
factor 3
captive 3
asserted 3
refineries 3
shifting 3
provides 3
bolstering 3
lunch-time 3
craig 3
carlsson 3
sheep 3
lifetime 3
hq 3
prompts 3
clouded 3
spanish-owned 3
borrowing 3
frantic 3
guests 3
myriam 3
sochacki 3
rampaged 3
dragging 3
anonymous 3
reversible 3
collaborator 3
regretted 3
un-declared 3
ringgit 3
unabated 3
plots 3
departed 3
residence 3
beefed 3
invader 3
humble 3
catwalk 3
collaborators 3
deterrent 3
oscar-winning 3
barbra 3
croon 3
impatience 3
bears 3
dashed 3
servicemen 3
hamas-ruled 3
follow-through 3
wigan 3
pkk 3
qalqilya 3
infiltrate 3
patent 3
cautioned 3
dressing 3
mediators 3
undisclosed 3
picabo 3
dress 3
eruption 3
alec 3
poverty-stricken 3
platforms 3
seasonally-adjusted 3
yudhoyono 3
stream 3
nasty 3
parks 3
unification 3
hainan 3
forecasters 3
crop 3
walid 3
muallem 3
norilsk 3
brammertz 3
crisis-struck 3
outflow 3
criticizing 3
represented 3
francesco 3
decreased 3
client 3
late-day 3
museveni 3
protecting 3
price-fixing 3
cathedral 3
ruins 3
entitled 3
skeptical 3
mayoral 3
trailing 3
photographer 3
herve 3
kaj 3
guarded 3
reel 3
forged 3
assurances 3
tone 3
convened 3
disappearing 3
demirel 3
sailing 3
leaning 3
vent 3
fury 3
dashing 3
puppet 3
thwart 3
computing 3
billed 3
newsagency 3
powerhouse 3
amputated 3
submits 3
best-known 3
perpetrators 3
caller 3
dying 3
melor 3
bookmakers 3
shaanxi 3
frigate 3
trevor 3
kigali 3
pando 3
leopoldo 3
detains 3
emmys 3
oil-producing 3
emerges 3
escorted 3
collected 3
o 3
westminster 3
spokesmen 3
####gmt 3
lethargic 3
dennis 3
rodman 3
trails 3
georgia-russia 3
kiwi 3
jammed 3
advances 3
dornier 3
dasa 3
weu 3
ranulph 3
fiennes 3
saudis 3
embryo 3
banked 3
afgoye 3
mecca 3
swim 3
#.#-metre 3
tall 3
state-funded 3
classes 3
promotes 3
segregation 3
sensational 3
southampton 3
nail 3
stuart 3
moi 3
restarting 3
significantly 3
franco-belgian 3
cso 3
spaniard 3
proposing 3
himalayan 3
frelimo 3
relay 3
devices 3
mithal 3
us-russian 3
eyeing 3
letting 3
gatien 3
beats 3
pharmacia 3
merchants 3
sit 3
bungling 3
alfredsson 3
tackling 3
mistaken 3
koran 3
discusses 3
skandia 3
unannounced 3
policy-making 3
bayer 3
canberra 3
mired 3
top-level 3
quito 3
drowning 3
roars 3
shelf 3
korea-based 3
flash-memory 3
spanned 3
rwandans 3
three-and-a-half 3
depot 3
amend 3
exploiting 3
excluded 3
dancer 3
easternmost 3
east-west 3
relegation 3
goodbye 3
yards 3
schengen 3
pedestrians 3
aviator 3
addition 3
large-scale 3
cabs 3
creates 3
focussed 3
audit 3
typical 3
enquiry 3
presumed 3
feyenoord 3
heavyweights 3
aluminium 3
grapples 3
ricky 3
blues 3
embassies 3
lined 3
sino-us 3
six-day 3
zimababwe 3
drove 3
arab-israeli 3
bn 3
sniper 3
unclear 3
match-rigging 3
brighter 3
shake-up 3
pipe 3
expenditures 3
intact 3
redeploy 3
arrivals 3
escaping 3
fleming 3
traveled 3
frier 3
paralyzed 3
unwilling 3
exhibit 3
adultery 3
pneumonia 3
trumpets 3
amendments 3
devastation 3
fiumicino 3
sailor 3
golfers 3
tactics 3
merchandise 3
flaws 3
liberalise 3
preferences 3
tampa 3
disasters 3
fdic 3
beatrix 3
witching 3
jean-marie 3
courage 3
rattle 3
high-stakes 3
capitol 3
laboratories 3
burglars 3
downplays 3
sleeper 3
evaluate 3
dissolve 3
ruin 3
repulsed 3
brinkmanship 3
fractured 3
bargaining 3
france-klm 3
aloft 3
cronyism 3
missionary 3
defined 3
prayers 3
telling 3
indicates 3
snubbed 3
tory 3
mwinyi 3
elephant 3
stray 3
capitalism 3
girlfriend 3
hitler 3
airwaves 3
lambasts 3
trans-pacific 3
idriss 3
deby 3
televised 3
carries 3
vinnie 3
speak 3
rancorous 3
three-state 3
alfredo 3
ivan 3
argue 3
carmaker 3
reversal 3
insistance 3
headache 3
smog 3
stoned 3
us-style 3
incursions 3
demobilisation 3
metallurgy 3
awarding 3
unnerved 3
full-blown 3
minh 3
sprained 3
punch 3
subsequent 3
christ 3
unify 3
partially 3
suha 3
marta 3
inspector 3
wooden 3
un-sponsored 3
cross-channel 3
ssb 3
maldivian 3
accidental 3
fill 3
virgin 3
bottles 3
miracle 3
hongkong 3
morelia 3
full-strength 3
autonomy-seeking 3
waves 3
meryl 3
streep 3
achievement 3
attackers 3
jacobson 3
derailed 3
itar 3
tass 3
hostel 3
tragic 3
fresno 3
numerous 3
trippers 3
las 3
vegas 3
departs 3
graceful 3
u-turn 3
profile 3
isolation 3
man-made 3
starlight 3
cruises 3
nine-time 3
unknowns 3
bate 3
borisov 3
bernabeu 3
accuse 3
mid-session 3
broadband 3
band 3
basks 3
grudge 3
high-technology 3
troublemakers 3
initiated 3
dresses 3
impetus 3
clarification 3
hemisphere 3
super-middleweight 3
bonny 3
thaw 3
dismissing 3
fulfilled 3
prefers 3
tuvalu 3
highways 3
tivo 3
you 3
writers 3
participate 3
shrunk 3
#,###-year-old 3
hillside 3
netted 3
herat 3
receiver 3
savors 3
guided 3
younger 3
lie 3
reaffirming 3
partisan 3
troopergate 3
stirring 3
speaks 3
despatch 3
skittish 3
felipe 3
prelate 3
centre 3
gradually 3
hurtles 3
blanketed 3
shellshocked 3
conclusion 3
ticking 3
raila 3
odinga 3
boast 3
us-north 3
headline 3
+ 3
prisa 3
aspects 3
enabling 3
choosing 3
dili 3
teargas 3
moldova 3
ibm 3
microprocessor 3
duke 3
heavily-populated 3
outflows 3
thrilling 3
disruption 3
locally 3
dependence 3
haggling 3
rash 3
parcells 3
cleveland 3
sevens 3
federalist 3
installed 3
figured 3
allocated 3
scrap 3
audience 3
respiratory 3
fitness 3
motorcycling 3
writedowns 3
falkland 3
three-point 3
coal 3
trauma 3
fundamentalism 3
disarmed 3
pembe 3
breweries 3
visas 3
constructive 3
pirate 3
espn 3
clinching 3
stubborn 3
nose 3
matt 3
director-general 3
centuries 3
wrangle 3
rebellious 3
euro-sceptics 3
scramble 3
marc 3
vincent 3
pints 3
oktoberfest 3
swung 3
hurled 3
collaboration 3
conflagration 3
sox 3
batsman 3
fisherman 3
plaintiff 3
hosts 3
mistook 3
mohan 3
shadowy 3
prized 3
harm 3
guy 3
peasants 3
sapa 3
blackout 3
restricted 3
cooperative 3
settling 3
spacewalk 3
douse 3
teng-hui 3
bonn 3
subsided 3
liamine 3
zeroual 3
mofaz 3
erotic 3
facto 3
un-led 3
goalkeeper 3
dissolves 3
positioning 3
pivotal 3
cling 3
impressive 3
blanks 3
cooking 3
improving 3
coastguards 3
##.#-billion-pound 3
squadron 3
nuclear-armed 3
sedan 3
halve 3
deferred 3
skin 3
dumitrescu 3
###-selected 3
presents 3
warnings 3
conclusions 3
realistic 3
invading 3
knifed 3
sydney-hobart 3
bass 3
painter 3
bahrainis 3
planemaker 3
auctioneers 3
christie 3
monarch 3
slashes 3
guinea-bissau 3
sikh 3
salutes 3
glimpse 3
volonte 3
pro-democracy 3
encountered 3
apologised 3
banco 3
oro 3
ipswich 3
lyall 3
adapt 3
rupee 3
syndrome 3
ramallah 3
##ers 3
trumpeted 3
guarding 3
sliver 3
cowed 3
suspicions 3
minors 3
arroyo 3
outsourcing 3
indications 3
bolt 3
zeev 3
nebraska 3
anti-terrorist 3
connect 3
schering 3
demilitarized 3
globally 3
anp 3
lang 3
predecessors 3
inaugurated 3
inventory 3
tamils 3
baron 3
knicks 3
muscle 3
wba 3
reconsider 3
ex-mp 3
janowski 3
busted 3
t-shirts 3
tombs 3
salonika 3
cabin 3
aamir 3
medallist 3
usa 3
pretoria 3
screen 3
###.### 3
competitor 3
brewing 3
destabilize 3
fortunes 3
droves 3
baf 3
january-september 3
frontiers 3
riding 3
maximum 3
accounting 3
clinched 3
bonuses 3
veterans 3
drug-taking 3
abyss 3
seasonally 3
identify 3
equatorial 3
camera 3
###-million 3
siege 3
advisers 3
roadblock 3
tilak 3
marapana 3
amaratunga 3
firearms 3
licences 3
nazarov 3
hawaii 3
investing 3
assure 3
plates 3
asylum-seekers 3
bjorkman 3
wrestling 3
self-imposed 3
societies 3
audio 3
wembley 3
paraded 3
jangmi 3
govern 3
arrears 3
mercosur 3
responding 3
escapees 3
treasure 3
lra 3
saves 3
honoring 3
worshippers 3
grid 3
disappointment 3
describe 3
langer 3
awkward 3
lowered 3
venables 3
call-up 3
welsh 3
discovering 3
entirely 3
employers 3
finns 3
escalate 3
secretariat 3
leon 3
outweighing 3
bacteria 3
lockheed 3
fla 3
nerves 3
deliberately 3
exiles 3
edward 3
inland 3
mortars 3
wielding 3
reunited 3
kmt 3
duong 3
thu 3
huong 3
lesson 3
schism 3
format 3
pair 3
serb-held 3
downgraded 3
outcast 3
coen 3
insecurity 3
coordination 3
exempt 3
darker 3
orbiting 3
aftershocks 3
cska 3
day-night 3
detected 3
pearce 3
admission 3
enimont 3
sights 3
drill 3
yonhap 3
disbelief 3
suitable 3
shiites 3
hitches 3
self-determination 3
glycol 3
libel 3
recommending 3
drafting 3
deports 3
favored 3
separatist-minded 3
swelling 3
heathrow 3
prostitute 3
anti-apartheid 3
jeep 3
barriers 3
mistreatment 3
sifted 3
hatred 3
confession 3
twitter 3
declarations 3
shootings 3
virginia 3
outfits 3
favoring 3
hatchet 3
cents 3
golfer 3
improvements 3
overdue 3
poses 3
flamboyant 3
python 3
bamako 3
channels 3
gogh 3
fall-out 3
middlesbrough 3
srna 3
defect 3
unilever 3
lipton 3
whales 3
kismayo 3
breeding 3
seaman 3
watershed 3
undercover 3
congestion 3
object 3
norwich 3
brave 3
kenyans 3
solomons 3
calculation 3
productivity 3
allotted 3
persona 3
grata 3
orderly 3
duty-free 3
publications 3
boundaries 3
covered 3
eradicate 3
mid-morning 3
hansen 3
diamonds 3
co-founder 3
safrican 3
vajpayee 3
beheaded 3
yulon 3
laotian 3
outokumpu 3
dcn 3
miracles 3
ravage 2
awareness 2
costelloe 2
losers 2
eliminate 2
spl 2
slate 2
screw 2
ceballos 2
examining 2
wrongdoing 2
warms 2
undefeated 2
levelling 2
prayed 2
sanctity 2
davies 2
full-time 2
sheik 2
unfurled 2
newsstands 2
lapresle 2
closed-circuit 2
intruded 2
deliberations 2
lecturer 2
prof 2
erupting 2
osteoporosis 2
reining 2
shanty 2
pondered 2
ponders 2
warehouse 2
partition 2
authorising 2
intermediate 2
vouchers 2
plasterboard 2
paints 2
jens 2
gendarmerie 2
inherit 2
alabama 2
commandments 2
anti-tobacco 2
talked 2
hiring 2
finnair 2
minus 2
witchhunt 2
unhurt 2
barroso 2
angering 2
traditionally 2
menard 2
meles 2
zenawi 2
hovered 2
hovers 2
obsession 2
sunni-shiite 2
nationalization 2
hiking 2
neighboring 2
till 2
froze 2
infusion 2
downgrades 2
night-vision 2
year-round 2
mortgage-related 2
panmunjom 2
cremate 2
skulls 2
atrocities 2
brendan 2
turnbull 2
gridlock 2
surface-to-air 2
small-arms 2
hemorrhagic 2
ganging 2
bypassing 2
israeli-palestinian 2
penthouse 2
waffling 2
dynamite 2
wamba 2
horrendous 2
relationship 2
judge-prosecutor 2
enlarged 2
us-government 2
linger 2
consolidation 2
frauds 2
groundwork 2
seeing 2
sv 2
transmission 2
enriching 2
isna 2
responsiblity 2
wraps 2
kse 2
handy 2
millionaires 2
paupers 2
policewoman 2
outdated 2
technician 2
mordechai 2
counterproductive 2
sliding 2
ecowas 2
fighter-bombers 2
tomislav 2
nikolic 2
ex-serb 2
eu-friendly 2
riba 2
resolved 2
gigantic 2
twenty-five 2
cold-blooded 2
centennial 2
heilongjiang 2
injecting 2
worsley 2
applause 2
flexibility 2
al-ahmar 2
soured 2
courthouse 2
gambling 2
cluster 2
creams 2
yoghurt 2
wedneday 2
apologized 2
plank 2
legalizing 2
pot 2
sheringham 2
dented 2
provocation 2
sellers 2
radja 2
enshrined 2
encampment 2
intifada 2
cob 2
earliest 2
live-in 2
aired 2
underline 2
undue 2
viduka 2
houghton 2
barring 2
ex 2
wives 2
uzbek 2
flocked 2
tussle 2
cnooc 2
husky 2
swindle 2
mud 2
fanfare 2
hazardous 2
substances 2
dismantling 2
malawian 2
kamuzu 2
ryan 2
o'neal 2
poles 2
defers 2
households 2
ritual 2
meager 2
watered 2
newlands 2
husbands 2
alimony 2
aggressively 2
townsend 2
tangible 2
scars 2
miraculously 2
car-bomb 2
giovanni 2
falcone 2
hitherto 2
wolfgang 2
mozart 2
library 2
mol 2
controlling 2
cranked 2
ismail 2
impassable 2
beck 2
appropriate 2
preston 2
gori 2
gunship 2
appearing 2
hedging 2
pointing 2
eclipse 2
doctrine 2
polled 2
para-military 2
batch 2
leftwing 2
stuns 2
mobilise 2
wreaking 2
wreak 2
rocking 2
staunch 2
shrines 2
bruno 2
legends 2
disks 2
momcilo 2
perisic 2
infiltration 2
asleep 2
corrected 2
english-language 2
bentley 2
prestige 2
falsely 2
replay 2
papered 2
fredrick 2
ligier 2
insurgency-hit 2
blue-chips 2
adversely 2
hawke 2
ex-wife 2
pro-russian 2
leonardo 2
medina 2
##th-hour 2
conviction 2
mcdonalds 2
championed 2
disenfranchised 2
cd 2
songs 2
swoop 2
peach 2
cruised 2
pavarotti 2
modena 2
visible 2
seven-day 2
reverses 2
coastline 2
forwards 2
jason 2
dossier 2
manipulation 2
redoubled 2
supplanted 2
villarreal 2
promoted 2
emery 2
ceiling 2
lamberto 2
dini 2
advancing 2
anarchic 2
structural 2
honduran 2
screens 2
themes 2
bard 2
grandmother 2
pyonyang 2
bnp 2
paribas 2
meth 2
poti 2
offence 2
nihon 2
keizai 2
edwards 2
humanity 2
true 2
angst 2
kangaroo 2
eu-brokered 2
sour 2
daughter-in-law 2
authoritarianism 2
fluctuation 2
whouse 2
alternate 2
designate 2
retrieve 2
topples 2
d.j. 2
dj 2
near-meltdown 2
baa# 2
issuance 2
spearhead 2
knot 2
prize-winning 2
fretilin 2
invests 2
clots 2
laptop 2
invaded 2
suicides 2
spooked 2
staggers 2
loot 2
nursing 2
commandeered 2
zebedayo 2
destabilising 2
slap 2
skeptics 2
hastily 2
shrugging 2
guessing 2
ukranian 2
mujahedeen 2
double-digit 2
ups 2
literature 2
passerby 2
jennings 2
medalist 2
unionist 2
explain 2
kantar 2
lowly 2
reminded 2
judo 2
bumper 2
afford 2
sympathy 2
wicketkeeper 2
blunt 2
then-prime 2
pro-rebel 2
inflated 2
chul-su 2
sprawling 2
flounders 2
der 2
spiegel 2
strands 2
all-in 2
instinctive 2
gambles 2
redemption 2
reels 2
slow-paced 2
cooper 2
joan 2
amounts 2
##th-century 2
xiaoping 2
rabbis 2
teammates 2
jay-jay 2
nora 2
vaccine 2
gravely 2
refueling 2
handouts 2
coffers 2
bowing 2
cartoonist 2
coke 2
prolonging 2
copilot 2
thrill 2
thick 2
three-year-old 2
far-left 2
al-azhar 2
retreating 2
wilderness 2
koffi 2
gorilla 2
caesars 2
incorporated 2
heidfeld 2
koons 2
chateau 2
artwork 2
bells 2
greet 2
secular 2
crumbling 2
centres 2
excluding 2
handout 2
tu-### 2
cold-war 2
disappointed 2
painkillers 2
sub-continent 2
drafted 2
antoinette 2
qna 2
argues 2
rams 2
commuters 2
garner 2
greetings 2
disprove 2
impossible 2
mocked 2
feverish 2
safe-haven 2
inter-services 2
isi 2
arcades 2
lift-off 2
cooperated 2
bribe 2
buenos 2
aires 2
gift 2
knockout 2
fast-growing 2
nazis 2
enemy 2
demise 2
substantive 2
learned 2
nerve 2
deaf 2
bolton 2
allardyce 2
subversion 2
dried 2
tutsi-led 2
troy 2
nationalised 2
war-style 2
tottering 2
excludes 2
wrote 2
eu-wide 2
hazards 2
cadmium 2
underage 2
geared 2
negotiation 2
proceed 2
aramco 2
latter 2
vanuatu 2
crumble 2
pierre-auguste 2
nominal 2
mothers 2
fortnight 2
koss 2
ethiopians 2
famine 2
greenlight 2
prime-time 2
adminstration 2
dutch-swedish 2
poverty-reduction 2
germans 2
carefree 2
sexy 2
hre 2
leaked 2
primacy 2
armistice 2
tumultuous 2
cervical 2
beckenbauer 2
criticizes 2
begging 2
farah 2
guillaume 2
bench 2
racecourse 2
osan 2
ejected 2
caltex 2
auctions 2
cry 2
shine 2
surpassing 2
shipyards 2
gdynia 2
#.#-percent 2
well-known 2
pro-india 2
tights 2
solvency 2
vereinsbank 2
hint 2
disfigured 2
plunder 2
bias 2
tarnish 2
blanc 2
flock 2
monster 2
vetoes 2
winston 2
mit 2
noses 2
filipinos 2
provoking 2
munitions 2
sumatran 2
rhinos 2
crowned 2
walcott 2
mallawi 2
faults 2
sand 2
uniform 2
bowled 2
sandoz 2
generics 2
debilitating 2
ahold 2
guilders 2
sequence 2
shifts 2
felony 2
talabani 2
investiture 2
maputo 2
stint 2
velez 2
inter-continental 2
churchmen 2
doctored 2
scholars 2
meltdowns 2
sanguinetti 2
billboards 2
surprising 2
crowe 2
truffle 2
likelihood 2
disclosure 2
zapatero 2
itunes 2
untapped 2
revealing 2
battery-powered 2
hoshyar 2
zebari 2
belonged 2
accessories 2
baggage 2
loaded 2
bomb-making 2
vladikavkaz 2
tunes 2
harmony 2
todd 2
fuji 2
challengers 2
quarters 2
cost-cutting 2
nanny 2
government-commissioned 2
un-administered 2
destructive 2
match-winning 2
glenn 2
mcgrath 2
#.#-billion-euro 2
shudders 2
adverts 2
gender 2
untenable 2
wondered 2
memorandum 2
skiers 2
philippines-based 2
fading 2
progressive 2
cried 2
sober 2
significance 2
ricardinho 2
concentrated 2
vastly 2
sasp 2
unseeded 2
sequera 2
improbable 2
bell 2
reappeared 2
symbolic 2
akbar 2
co-pilot 2
bae 2
vsel 2
han 2
instincts 2
paramilitaries 2
co-premier 2
hinting 2
overrode 2
nationalists 2
prohibit 2
supplier 2
public-sector 2
career-best 2
collymore 2
lyonnaise 2
#.#-bln-euro 2
generous 2
biodiversity 2
objectives 2
toe 2
affiliate 2
bread 2
partiality 2
yongtu 2
renovation 2
css 2
beaches 2
african-american 2
proliferation 2
nukes 2
one-tenth 2
referee 2
nominate 2
campese 2
flyhalf 2
campo 2
basement 2
fundamentally 2
peer 2
revitalise 2
preside 2
libeskind 2
zigzagged 2
whipsawed 2
pro-syrian 2
indira 2
gandhi 2
anti-sikh 2
welcoming 2
low-risk 2
passport 2
trounce 2
forecasting 2
sentencing 2
politically-motivated 2
twenty-nine 2
israeli-controlled 2
bowed 2
izvestia 2
dictionary 2
cattle 2
finishes 2
steffi 2
conchita 2
toray 2
qom 2
maneuvers 2
anti-iraqi 2
replying 2
complications 2
maternal 2
mortality 2
wardens 2
sabc 2
medeva 2
punched 2
thrash 2
alphandery 2
jungle 2
andes 2
forgot 2
humor 2
hanukkah 2
impounded 2
smouldering 2
browsers 2
world-first 2
dimensions 2
prints 2
curator 2
leaky 2
rental 2
bikes 2
entice 2
peacefully 2
cardiff 2
acute 2
chihuahua 2
minani 2
irrelevance 2
playground 2
elementary 2
slug 2
guaranteed 2
principal 2
armoured 2
quantum 2
self-sufficiency 2
ratcheted 2
rebuffing 2
id 2
anderson 2
swells 2
new-generation 2
shields 2
boot 2
retailing 2
marries 2
brigitte 2
biologists 2
ba 2
springboks 2
productive 2
townspeople 2
rat 2
potent 2
doom 2
mishap 2
#\/# 2
hull 2
cherished 2
pets 2
bcc 2
hairdresser 2
gallaher 2
respective 2
near-riot 2
seafront 2
episode 2
comfort 2
part-time 2
unsure 2
actually 2
expecting 2
fraternal 2
stamps 2
infects 2
seekers 2
voodoo 2
lounge 2
inaugurate 2
us-installed 2
burhanuddin 2
rabbani 2
disembark 2
satisfactory 2
downgrading 2
duracell 2
lithium 2
gunning 2
centenarian 2
deploys 2
seventeen 2
finalizing 2
revoked 2
downswing 2
nice 2
difference 2
phoney 2
bath 2
balanced 2
rundown 2
inches 2
skopje 2
matthew 2
hayden 2
prodigious 2
stationing 2
proven 2
radically 2
alter 2
freedoms 2
indirectly 2
pro-us 2
insider 2
chamorro 2
humberto 2
overrun 2
copies 2
featuring 2
nervousness 2
assuring 2
franco-german 2
entente 2
sabina 2
panzanini 2
anita 2
climber 2
savaged 2
rudy 2
assumed 2
nominating 2
flayed 2
first-time 2
wrought 2
lotus 2
asyut 2
applied 2
distractions 2
prizes 2
swayed 2
dimming 2
bearish 2
advice 2
paratroopers 2
marianas 2
kit 2
functional 2
boe 2
undeclared 2
anti-islamification 2
websites 2
mugged 2
champ 2
matrimonial 2
machinists 2
laughs 2
flick 2
scary 2
pms 2
pizza 2
hut 2
strut 2
degussa 2
cooperating 2
turin 2
sermons 2
baseless 2
warmed 2
three-test 2
stride 2
rang 2
ballmer 2
retaining 2
impregnable 2
occur 2
low-cost 2
formulas 2
robertson 2
mouse 2
racers 2
folkestone 2
loading 2
tank-laden 2
mierlo 2
deserted 2
shade 2
eclipsed 2
fraction 2
formalising 2
element 2
violence-plagued 2
supportive 2
abruptly 2
contagious 2
bug 2
shekel 2
transfixed 2
autopsy 2
morris 2
intergovernmental 2
sting 2
enjoyed 2
plush 2
operated 2
reagan 2
subcontractor 2
excited 2
chlorine 2
advertisement 2
coastguard 2
california-based 2
drive-by 2
juergen 2
five-party 2
defects 2
seconds 2
whopping 2
ernest 2
replenish 2
pacifist 2
wilson 2
attends 2
revolting 2
kisumu 2
corpses 2
guayaquil 2
bucked 2
mayweather 2
barbaric 2
pertamina 2
exploitation 2
bskyb 2
ioc 2
strolled 2
stroll 2
sponsors 2
mocks 2
stevenson 2
researcher 2
fungus 2
vanilla 2
substance 2
prevents 2
convey 2
schooling 2
enhanced 2
outgun 2
reconvene 2
equality 2
individualism 2
exposes 2
swindon 2
contesting 2
pitched 2
eight-year 2
scenic 2
mustafa 2
flushed 2
transferring 2
pioneering 2
ecomog 2
del 2
contemplating 2
shelter 2
combining 2
sacred 2
extreme-right 2
###-megawatt 2
administering 2
picket 2
fulfil 2
sonic 2
booms 2
shake 2
al-sabah 2
kmart 2
faulk 2
rookies 2
workplaces 2
al-alfi 2
enduring 2
expressing 2
anti-pornography 2
thai-owned 2
suggest 2
jibes 2
hurtling 2
carbomb 2
barbecue 2
tandoor 2
hon 2
hai 2
holyfield 2
pour 2
vandalise 2
puerto 2
rico 2
replacements 2
purchases 2
goma 2
abdelaziz 2
pessimism 2
licensed 2
cruiser 2
chequered 2
imperilled 2
implemented 2
czar 2
sd 2
galang 2
swank 2
benign 2
bari 2
genoa 2
yuri 2
troopers 2
highbury 2
upsurge 2
kukes 2
ambassador-designate 2
peshawar 2
fractional 2
ads 2
taxis 2
russian-speaking 2
pablo 2
hard-hitting 2
arch-rival 2
outright 2
tricky 2
print 2
embezzled 2
amoroso 2
sidelined 2
quinnipiac 2
fret 2
finale 2
jefferies 2
batters 2
four-year 2
penis 2
pursued 2
notches 2
strawberry 2
inc 2
tornadoes 2
fabio 2
construct 2
optic 2
communication 2
jiabao 2
alarmed 2
coaching 2
trinidad 2
tobago 2
kone 2
komatsu 2
mahinda 2
rajapakse 2
directorate 2
jennifer 2
wildcard 2
hingis 2
mushroom 2
j.k. 2
rowling 2
canton 2
motorists 2
shutting 2
confronting 2
reward 2
tarja 2
halonen 2
methods 2
scottie 2
tables 2
anastasia 2
advanta 2
philly 2
yorke 2
record-man 2
normalization 2
sanna 2
rotation 2
anarchists 2
evacuate 2
anti-doping 2
burnt 2
sanchez 2
vicario 2
yelena 2
spacecraft 2
undertake 2
bild 2
zeitung 2
pointed 2
timeframe 2
atlanta 2
dependent 2
miller 2
accelerated 2
deisler 2
lit 2
exuberant 2
tremors 2
noted 2
headway 2
rupturing 2
conversion 2
circle 2
industrie 2
absorbed 2
fulfill 2
al-aqsa 2
villiers 2
conducting 2
undertook 2
bebeto 2
hard-core 2
raf 2
ballet 2
aboriginal 2
barreled 2
midwest 2
light-water 2
bloodbath 2
prachanda 2
industrialised 2
residing 2
danish-swedish 2
arla 2
sfa 2
partick 2
hamilton 2
airasia 2
bows 2
cricketers 2
outclass 2
exciting 2
arch-rivals 2
cheap 2
docking 2
distanced 2
differs 2
deplores 2
seb 2
straying 2
submarines 2
ballistic 2
exercised 2
bo 2
yakovenko 2
disciplines 2
tarnished 2
steals 2
hypnosis 2
gambia 2
depending 2
kokoity 2
improves 2
muted 2
ghazi 2
relent 2
grossly 2
distorted 2
designs 2
backyard 2
littered 2
burned-out 2
biopic 2
monde 2
dirty 2
tricks 2
navigation 2
originally 2
telkom 2
obstacle 2
bolger 2
adjoining 2
marchers 2
realnetworks 2
dvds 2
dvd-copying 2
militarily 2
ramses 2
schaeffler 2
antiques 2
videos 2
imitators 2
viewers 2
turgeon 2
josef 2
strobl 2
bathing 2
bouygues 2
softening 2
closest 2
regular-season 2
effigy 2
mistrust 2
firebomb 2
goran 2
luck 2
waits 2
diagnoses 2
mcdermott 2
milestones 2
britney 2
spears 2
spiral 2
bucking 2
ingvar 2
revision 2
component 2
stoichkov 2
ingrid 2
addresses 2
muscles 2
clarity 2
mop 2
strugglers 2
cic 2
gan 2
filling 2
clogged 2
implicitly 2
nagaland 2
infiltrated 2
stabbing 2
weighs 2
diplomacy 2
gears 2
lieutenant 2
detaining 2
pegging 2
reinstate 2
valuable 2
stared 2
victor 2
camorra 2
##-billion-euro 2
thirty-one 2
vigorously 2
default 2
fantasy 2
audiences 2
psb 2
planed 2
dalian 2
label 2
eyles 2
us-south 2
neave 2
beverage 2
reluctantly 2
apprehension 2
wobbles 2
sanction 2
insight 2
ouput 2
narita 2
reassurance 2
depositors 2
diverts 2
scalp 2
unites 2
corruption-tainted 2
slovenians 2
bremen 2
secretaries 2
hugely 2
rebel-held 2
nato-russia 2
aznar 2
pharmacists 2
lax 2
rumbling 2
keg 2
rhodes 2
arrow 2
detailing 2
assessments 2
woe 2
importer 2
readies 2
traction 2
okinawa 2
interesting 2
defaulted 2
post-genocide 2
representation 2
sexes 2
streamed 2
newborn 2
essay 2
critic 2
outsider 2
capture 2
grains 2
liberians 2
producing 2
ratko 2
fast-food 2
depicting 2
rahman 2
milutinovic 2
enlarge 2
owed 2
pboc 2
ground-breaking 2
omani 2
ona 2
yoweri 2
margins 2
u.s. 2
jenin 2
parking 2
iridium 2
hunger-strikers 2
dampened 2
theme 2
london-based 2
anti-aircraft 2
lamassoure 2
machu 2
picchu 2
un-imposed 2
lutheran 2
aware 2
cybercrime 2
wakes 2
planetary 2
keanu 2
reeves 2
zloty 2
##-million-dollars 2
##-bln-dlr 2
morin 2
neglect 2
luther 2
expiration 2
hornets 2
jamal 2
mashburn 2
fianna 2
deceased 2
introducing 2
redundancies 2
ruddock 2
amphibious 2
##.### 2
ak-## 2
sap 2
debauchery 2
depraved 2
convenes 2
suleyman 2
roh 2
inundated 2
fresenius 2
aviva 2
staffers 2
undersecretary 2
eugenics 2
anti-malaria 2
hit-and-run 2
overshoot 2
graeme 2
payout 2
aso 2
geeks 2
forint 2
mcafee 2
haiphong 2
rank 2
nicknamed 2
loved 2
convict 2
builders 2
justification 2
pro-growth 2
anywhere 2
b\/d 2
reciprocal 2
influence-peddling 2
fsk 2
counter-intelligence 2
counter-espionage 2
gaza-egypt 2
waca 2
home-grown 2
capable 2
lists 2
buffeted 2
swearing 2
knightley 2
gilles 2
menage 2
carole 2
bouquet 2
woodman 2
restoration 2
depriving 2
wield 2
krabbe 2
altogether 2
outfit 2
majestic 2
citadel 2
atop 2
aleppo 2
fortress 2
sinister 2
conqueror 2
spaniards 2
forts 2
jin-u 2
abbey 2
candle 2
al-beltagui 2
deserts 2
ample 2
nc 2
scattered 2
ing 2
kbc 2
far-reaching 2
six-year-old 2
low-income 2
stonehenge 2
arising 2
'll 2
seed 2
hindu-christian 2
usair 2
oklahoma 2
pillar 2
tankers 2
marathons 2
continents 2
hitch 2
experiments 2
vitro 2
fertilization 2
echo 2
hissene 2
volunteer 2
wim 2
buddha 2
french-made 2
courtney 2
walsh 2
tissier 2
injury-time 2
consultations 2
slaughterhouses 2
responded 2
assert 2
arap 2
towel 2
episcopal 2
contrast 2
voulgarakis 2
tentatively 2
withdrawals 2
unofficial 2
newly-installed 2
vacant 2
adriano 2
serie 2
digested 2
fightback 2
singaporean 2
newfoundland 2
pleat 2
oviedo 2
derailment 2
keen 2
forrest 2
gump 2
pulp 2
nominations 2
nominees 2
ammo 2
wilted 2
lent 2
mourns 2
elbaradei 2
postponement 2
berbizier 2
fouroux 2
scoffs 2
rippled 2
amongst 2
bewildered 2
venpres 2
legalisation 2
taught 2
suedzucker 2
###-million-euro 2
outstanding 2
rt 2
uncle 2
mistaking 2
embrace 2
arranged 2
buddhists 2
gutted 2
garment 2
b-share 2
a-shares 2
associations 2
steiner 2
bike 2
albanian-populated 2
oil-for-food 2
broadening 2
observatory 2
prosecute 2
mccarthy 2
empties 2
literacy 2
read 2
eu-india 2
shockwave 2
deduction 2
vacation 2
licking 2
spd 2
non-democratic 2
mugging 2
disrespectful 2
imposition 2
exhibiting 2
defaulters 2
despotism 2
turkeys 2
weakest 2
pile 2
e-bay 2
at-risk 2
waging 2
afganistan 2
usd 2
incursion 2
darling 2
exerting 2
wished 2
wishes 2
santer 2
keeper 2
unsettled 2
government-backed 2
leaflets 2
emelec 2
verge 2
bruguera 2
refit 2
vetoing 2
all-rounder 2
protestor 2
extinguish 2
homophobic 2
mar 2
medics 2
assessed 2
hardcourt 2
policy-makers 2
outline 2
soybean 2
circles 2
scots 2
diehard 2
observance 2
lyndon 2
ex-secretary 2
half-way 2
emptied 2
assessment 2
camdessus 2
frederico 2
jamaa 2
clauses 2
counties 2
mariah 2
rapper 2
snoopy 2
doggy 2
riot-torn 2
ignites 2
provisionally 2
gamal 2
dancers 2
policy-setting 2
inspiration 2
goodison 2
really 2
suggestion 2
fences 2
clues 2
pierced 2
dry 2
newcomers 2
ferrying 2
bulletproof 2
merck 2
cuomo 2
transaction 2
lifestyle 2
one-fifth 2
projection 2
warwick 2
alfa 2
romeo 2
gunbattles 2
miner 2
rockfall 2
centrists 2
enslaved 2
eventual 2
maltese 2
falcon 2
diamond 2
demobilising 2
tsx 2
tolerance 2
clad 2
fur 2
brisk 2
ajax 2
chose 2
sanctuary 2
gavaskar 2
sheriff 2
nearer 2
qpr 2
patriarchs 2
phuket 2
switching 2
merging 2
stalinist 2
temperatures 2
falling-out 2
susana 2
higuchi 2
sacrifices 2
trim 2
southend 2
fee 2
undetected 2
bakr 2
forestall 2
jiangsu 2
entrance 2
elusive 2
huddled 2
four-time 2
martins 2
terminate 2
bernama 2
motorcade 2
liquefied 2
lpg 2
renewal 2
enquiries 2
mcnamee 2
criteria 2
inhabitants 2
export-led 2
in-fighting 2
tyres 2
rider 2
vilnai 2
observing 2
preemptive 2
explored 2
touching 2
pacemen 2
speedy 2
coffin 2
seahawks 2
associate 2
desecrated 2
cemetary 2
expel 2
kaufhof 2
disagrees 2
nastier 2
anti-gay 2
aru 2
beneath 2
expatriate 2
esmat 2
meguid 2
korydallos 2
re-arrested 2
sequel 2
ashton 2
kutcher 2
gossip 2
buddhism 2
remedy 2
fade 2
hijackings 2
thoroughbreds 2
brawl 2
piling 2
morale 2
philips 2
innocent-looking 2
bite-sized 2
ingested 2
popularity 2
resilient 2
humane 2
frequent 2
igor 2
yusufov 2
andean 2
recklessness 2
unbridled 2
disablement 2
french-speaking 2
defection 2
bustling 2
possessing 2
pornography 2
cardinal 2
lemieux 2
pittsburgh 2
philharmonic 2
rearrested 2
cross-fire 2
civilization 2
archeologists 2
darren 2
gough 2
enshrining 2
collects 2
homemade 2
defuses 2
downplayed 2
buildup 2
savior 2
islanders 2
washes 2
requirement 2
gaidar 2
slaying 2
ferrari 2
trounced 2
brandes 2
dignity 2
car-ferry 2
crucifix 2
erected 2
savage 2
play-off 2
bassett 2
ismailia 2
esperance 2
ittf 2
challenging 2
amphetamines 2
raja 2
dissolution 2
tajik-afghan 2
brothel 2
decency 2
fletcher 2
trunk 2
spelled 2
zubair 2
immune-deficiency 2
sympathisers 2
dhl 2
afrique 2
masterminding 2
calmer 2
feverishly 2
arithmetic 2
d'escoto 2
brockmann 2
veiled 2
nuri 2
al-maliki 2
prosecuted 2
karl 2
intrusion 2
ramos-horta 2
reinado 2
purveyors 2
pop-up 2
practically 2
sega 2
realities 2
pro-independence 2
humming 2
stiglitz 2
explains 2
kelly 2
##-year-long 2
insulted 2
tribune 2
fueling 2
armies 2
avi 2
weiss 2
obscenity 2
drifting 2
resident 2
bhairon 2
shekhawat 2
grizzlies 2
earthwinds 2
hilton 2
non-stop 2
round-the-world 2
doctor-assisted 2
photographs 2
day-old 2
jesus 2
pardons 2
prelude 2
rennes 2
otc 2
rides 2
cai 2
purportedly 2
pga-lpga 2
jolts 2
reckless 2
product-quality 2
levee 2
tail 2
long-lost 2
inter-arab 2
diary 2
swinging 2
focuses 2
amal 2
pro-israeli 2
rene 2
##rd 2
soul 2
medley 2
ruined 2
cummins 2
comfortable 2
plasma 2
mixer 2
frequently 2
laporte 2
sprang 2
defusing 2
fredrik 2
rodiles 2
##-under 2
spinners 2
stabilizing 2
start-# 2
henman 2
roger 2
federer 2
jeered 2
dismal 2
spells 2
rightist 2
define 2
furnace 2
bossa 2
nova 2
portfolio 2
hans-rudolf 2
merz 2
sag 2
ilyushin 2
schumann 2
#,###,### 2
beautiful 2
abrupt 2
hard-won 2
perth 2
governmental 2
hargeisa 2
egal 2
disgusting 2
lasting 2
underperform 2
addressed 2
providers 2
rejuvenating 2
tianjin 2
hiv-positive 2
torpedo 2
spokesperson 2
pretrial 2
snag 2
gaping 2
shortfalls 2
plotted 2
pagan 2
answered 2
perfect 2
wbo 2
cocoa 2
omv 2
nabucco 2
slighly 2
rebukes 2
obscure 2
bonnet 2
traces 2
ratifications 2
obey 2
recommend 2
seine 2
dec 2
primates 2
booths 2
ibn 2
tugboat 2
steeper 2
concept 2
forints 2
compaq 2
bantamweight 2
yakushiji 2
guilt 2
elf 2
aquitaine 2
eads 2
a###m 2
mummy 2
poppy 2
dudley 2
by-election 2
stalked 2
featured 2
lowering 2
clippers 2
matching 2
horrified 2
bryan 2
organizer 2
suez 2
mutinying 2
brierley 2
herald 2
five-country 2
gilligan 2
retreats 2
ozgur 2
ulke 2
hussey 2
sucked 2
keegan 2
anelka 2
banderas 2
fest 2
wiranata 2
slopes 2
skater 2
biographical 2
penpix 2
anglers 2
implements 2
dhabi 2
labeling 2
gaborik 2
multi-year 2
pakistani-afghan 2
parker-bowles 2
usually 2
supposed 2
camilla 2
adrian 2
eric 2
anglo-indian 2
whistle 2
eu-central 2
controller 2
tse 2
indication 2
tight-lipped 2
spurn 2
offing 2
rainforests 2
upholding 2
voa 2
maximize 2
emblazoned 2
iceberg 2
falters 2
isuzu 2
liquidated 2
konrad 2
firecrackers 2
jiong 2
suprianto 2
consideration 2
beta 2
appearance 2
combatants 2
benson 2
hurtled 2
layoffs 2
franziska 2
revamped 2
footwear 2
wheat 2
isaf 2
walkouts 2
##,###,### 2
bousquet 2
kauhajoki 2
breakfast 2
winding 2
humiliated 2
bent 2
committing 2
correcting 2
telecinco 2
generate 2
decrees 2
two-week 2
carlton 2
endless 2
meaning 2
reuters 2
kallis 2
ec 2
olympique 2
fragment 2
marble 2
parthenon 2
posh 2
fitted 2
government-affiliated 2
cdp 2
hasten 2
anti-fraud 2
emanating 2
scuppered 2
chinese-made 2
eczema 2
bahrain-based 2
educated 2
free-fall 2
karstadt 2
genting 2
reap 2
defected 2
most-wanted 2
surrendering 2
kuoni 2
rehabilitate 2
shepherd 2
prolonged 2
lg 2
indianapolis 2
mastery 2
friendship 2
stabilizes 2
hair 2
gerulaitis 2
wiggle 2
markov 2
hard-currency 2
joggers 2
stoner 2
mayne 2
nickless 2
nationalising 2
jv 2
bruges 2
parizeau 2
psychiatrists 2
yussef 2
blaspheming 2
atheist 2
death-threat 2
abbe 2
flats 2
budge 2
dc 2
kilometer 2
evolutionary 2
zeros 2
projected 2
etisalat 2
swan 2
whips 2
modi 2
macintosh 2
clones 2
athlete 2
improper 2
suppress 2
confidently 2
honey 2
arise 2
counters 2
warplane 2
divest 2
zhou 2
slovaks 2
midlanders 2
hikers 2
trainee 2
lewis 2
appease 2
scrutiny 2
dinosaur 2
cbk 2
cheques 2
pta 2
chased 2
regroup 2
waterways 2
amendment 2
libyans 2
multi-millionaire 2
authoritative 2
debt-stricken 2
tipped 2
blitz 2
philippe 2
sella 2
gutsy 2
juncture 2
misquoted 2
dreyfus 2
gere 2
cindy 2
franchises 2
fpg 2
petrochemical 2
sanyo 2
ozzie 2
guillen 2
franchise 2
ignoring 2
statue 2
hashimoto 2
do-not-call 2
scoured 2
hynix 2
antelope 2
trafford 2
conceded 2
highland 2
scotch 2
valentine 2
strasser 2
gro 2
harlem 2
brundtland 2
israeli-plo 2
targetting 2
labourers 2
registering 2
irian 2
jaya 2
sustainable 2
simpsons 2
manish 2
arora 2
hired 2
darkness 2
overseer 2
calderon 2
confiscate 2
floated 2
dz 2
breakneck 2
portillo 2
healing 2
ratio 2
anfield 2
encircle 2
masterminded 2
sadc 2
sister-in-law 2
saddle 2
turner 2
intestinal 2
oriental 2
angelina 2
tuberculosis 2
nonprofit 2
soothed 2
riddick 2
authorized 2
masterpieces 2
fan 2
fly-half 2
lashkar-e-taiba 2
shaul 2
spore 2
anti-piracy 2
sounded 2
greeted 2
roughly 2
quarter-finalists 2
brokering 2
sham 2
pigs 2
taunts 2
camel 2
sake 2
overwhelming 2
lobbying 2
vialli 2
crewman 2
jaime 2
axing 2
mid-term 2
lazio 2
el-beshir 2
hosting 2
nicolae 2
vacaroiu 2
racial 2
bible 2
worst-hit 2
johannes 2
acknowledges 2
yoga 2
clough 2
bilbao 2
picturesque 2
crimea 2
fuzzy 2
bogeyman 2
starfish 2
comprises 2
inuits 2
ilie 2
joey 2
seles 2
tate 2
expressionist 2
rothko 2
seven-year-old 2
confessing 2
poisonous 2
soyinka 2
ken 2
rooster 2
flop 2
memberships 2
shear 2
televisions 2
turquoise 2
pan-european 2
worrying 2
treating 2
rowan 2
rocard 2
enhancing 2
guidance 2
bunkers 2
xian 2
cobra 2
jeopardising 2
surface 2
mitsukoshi 2
profitability 2
guyana 2
employ 2
punjab 2
arsene 2
lightly 2
example 2
serbia-montenegro 2
accusation 2
respectively 2
origins 2
method 2
mice 2
fanned 2
jockey 2
gian 2
lusa 2
tracked 2
inspected 2
overland 2
meantime 2
barney 2
gorbachev 2
wearing 2
osama 2
carnival 2
five-week 2
spanish-language 2
guineans 2
fanny 2
burley 2
succession 2
hbo 2
script 2
unsafe 2
nehra 2
tame 2
dementia 2
creator 2
metrobank 2
pro 2
btr 2
annnounced 2
partly 2
equip 2
repsol 2
anders 2
transfers 2
policing 2
flynn 2
lagging 2
gloria 2
pain 2
fixed-line 2
gas-rich 2
silvestre 2
taliban-linked 2
relentless 2
atomstroyexport 2
russian-led 2
bidder 2
self-defence 2
akp 2
recommendations 2
stranglehold 2
inflationary 2
tune 2
sailboat 2
barrage 2
aghanistan 2
itim 2
associates 2
modify 2
patrolling 2
gharib 2
kong-flagged 2
taming 2
harold 2
walking 2
ageing 2
cameron 2
vfb 2
needing 2
stiffer 2
recommendation 2
medicine 2
studied 2
perceptions 2
stubb 2
recorders 2
torpedoed 2
off-form 2
dramas 2
letters 2
coordinating 2
vogts 2
torrid 2
extensive 2
airmen 2
saen 2
navka 2
kostomarov 2
robaina 2
najaf 2
movements 2
sorrows 2
tallest 2
landmarks 2
boasts 2
atlantis 2
teachings 2
renewable 2
danes 2
mushrooming 2
explained 2
brescia 2
comcast 2
clearest 2
defecting 2
malik 2
salim 2
massacred 2
tumors 2
deposed 2
mechanical 2
ravi 2
shankar 2
rewritten 2
first-half 2
butchers 2
donkeys 2
rainier 2
palm 2
cooling 2
pedicab 2
stabilising 2
subpoenaed 2
fanatics 2
trespasser 2
ancestral 2
ranch 2
conversations 2
katrina-like 2
funnyman 2
tooth 2
fairy 2
kabylie 2
floodlit 2
disagreement 2
courtyard 2
defrocked 2
inundation 2
hochtief 2
holzmann 2
discourage 2
j. 2
h. 2
binford 2
peay 2
soft-spoken 2
sharpened 2
huijin 2
co 2
federalism 2
ones 2
contributing 2
ixl 2
gao 2
sputtering 2
long-standing 2
stand-off 2
inditex 2
tack 2
cue 2
empire 2
obe 2
housemate 2
lesbian 2
iceman 2
foetuses 2
cooler 2
prevail 2
fiery 2
financier 2
soros 2
commemorate 2
scrambling 2
amidst 2
moral 2
duration 2
newell 2
salas 2
extinguished 2
tough-talking 2
diversified 2
mcmullan 2
loud 2
blacks 2
rokocoko 2
disgusted 2
malu 2
finalists 2
swell 2
carlo 2
benedetti 2
wuhan 2
prohibition 2
liquor 2
ngo 2
zew 2
powersharing 2
x-ray 2
late-night 2
intransigence 2
madeira 2
rooms 2
asda 2
resorted 2
communism 2
vigilantes 2
m. 2
healthcare 2
updating 2
croats 2
tyrannical 2
stretching 2
horan 2
busts 2
nurburgring 2
ebay 2
checkups 2
beaming 2
profil 2
motorbikes 2
juliette 2
binoche 2
performed 2
angered 2
sermon 2
keyboard 2
register 2
ctc 2
runways 2
represent 2
###-yen 2
barley 2
gencor 2
lonrho 2
travolta 2
us-held 2
stubbornly 2
parting 2
repaying 2
paves 2
serviceman 2
just-concluded 2
furor 2
large-caps 2
alloted 2
karbala 2
masya 2
peddling 2
ok 2
wilts 2
kidnappers 2
calvin 2
klein 2
protagonists 2
regard 2
norwegians 2
pastry 2
komarica 2
banja 2
luka 2
maid 2
b# 2
a# 2
fretting 2
deion 2
printer 2
cristiano 2
#-yr 2
non-military 2
pldt 2
hurling 2
existence 2
maintenance 2
liberalization 2
straits 2
appel 2
confrontational 2
tan 2
adecco 2
financially 2
michal 2
kovac 2
slumbering 2
diminishing 2
bluefin 2
pakistanis 2
vice-captain 2
fewer 2
nativity 2
cab 2
moustache 2
granting 2
expertise 2
saturn 2
performing 2
branson 2
renzo 2
piano 2
unfit 2
baltimore 2
wimax 2
hermetic 2
pluralism 2
coroner 2
rembrandt 2
annika 2
paraguay 2
handful 2
detective 2
coma 2
unopposed 2
dioxin 2
defoliant 2
geologists 2
spa 2
ratifying 2
impeachment 2
disturbances 2
daly 2
trusted 2
##-million 2
interfered 2
bonisolli 2
quintuplets 2
patten 2
revokes 2
hectares 2
acres 2
seaweed 2
provocations 2
transco 2
vaio 2
schoolboy 2
broom 2
cupboard 2
delage 2
crippen 2
personally 2
one-on-one 2
co-operation 2
mombassa 2
clean-up 2
fertility 2
bank-lending 2
strive 2
melting 2
checkpoints 2
pietrus 2
redevelopment 2
vogt 2
anti-coup 2
seedy 2
spurring 2
abderrahmane 2
grasp 2
turbines 2
hydrogen 2
answering 2
elaborate 2
no-show 2
ballroom 2
nanjing 2
argued 2
##-truck 2
pastor 2
grey 2
tempo 2
protectionism 2
doha 2
nervously 2
adana 2
crucifixion 2
five-percent 2
slayings 2
strictly 2
sulu 2
standstill 2
valid 2
landscape 2
skies 2
lido 2
amnestied 2
amnesties 2
congratulates 2
rapist 2
inquiries 2
nestle 2
noyer 2
pep 2
tasted 2
nou 2
prior 2
anti-graft 2
illegitimate 2
brittan 2
restraint 2
ortlieb 2
scythed 2
shrug 2
attitude 2
campaigned 2
mainframe 2
koller 2
hercules 2
attacker 2
publicize 2
jacobs 2
likes 2
broad-based 2
brushes 2
infighting 2
babacan 2
debartolo 2
mogul 2
gate 2
outsiders 2
odense 2
bride 2
off-shore 2
hottest 2
blackmail 2
heede 2
aground 2
enola 2
smithsonian 2
bureaucracy 2
blank 2
airforce 2
andreotti 2
classroom 2
jihadists 2
attributed 2
bed 2
mutu 2
unsuccessful 2
boiler 2
showpiece 2
facebook 2
networking 2
devotees 2
oasis 2
evangelical 2
auxiliaries 2
jewry 2
war-crimes 2
english-born 2
malibu 2
confines 2
overtures 2
yagudin 2
thwarting 2
ranger 2
hrw 2
mengniu 2
acceptable 2
growers 2
miro 2
calder 2
blessed 2
blesses 2
valdas 2
adamkus 2
hitachi 2
sundays 2
witchdoctor 2
pollster 2
orphanage 2
lacks 2
beret 2
jihadist 2
furniture 2
waffen 2
johnny 2
depp 2
ka 2
storm-hit 2
seemingly 2
tigris 2
semi 2
propel 2
kazan 2
rebuffed 2
explodes 2
overthrown 2
blazing 2
gudjohnsen 2
ince 2
evacuating 2
impending 2
panties 2
edp 2
harassing 2
satirist 2
iodine 2
deficiency 2
index-linked 2
revocation 2
slaughter 2
vientiane 2
araki 2
duped 2
spoof 2
simulating 2
hibernation 2
bollore 2
technologies 2
rees 2
hanson 2
steinway 2
high-rise 2
breathed 2
sigh 2
rtl 2
courageous 2
fit-again 2
harmison 2
xenophobic 2
samuel 2
l. 2
torments 2
desks 2
persecuting 2
truant 2
automotive 2
sadat 2
ethylene 2
carbide 2
ukawa 2
eliminating 2
mutilation 2
universe 2
huambo 2
overloading 2
castration 2
paedophiles 2
extort 2
wholly 2
anthem 2
baggy 2
jayasuriya 2
ace 2
slaughtering 2
defiantly 2
trump 2
plaza 2
containers 2
squatter 2
dense 2
biennale 2
vaclav 2
subdued 2
caledonia 2
white-minority 2
couch 2
behead 2
surveyors 2
bargains 2
colors 2
flawless 2
nuke 2
unfinished 2
umaga 2
bremer 2
councillor 2
complaining 2
harford 2
recalling 2
bucknor 2
capped 2
descend 2
j.p. 2
grobbelaar 2
forty 2
removal 2
churchill 2
commissioned 2
instalment 2
outing 2
adjourns 2
noticias 2
option 2
dee 2
robbing 2
finchem 2
prostitutes 2
repeated 2
publicity 2
ultranationalist 2
coasts 2
henkel 2
skids 2
arad 2
combustion 2
ci 2
waive 2
kepco 2
exemption 2
suprised 2
piranhas 2
cannabis 2
tramway 2
kashmiri 2
austerity 2
pre-independence 2
werner 2
dismay 2
ceremonial 2
platter 2
convenience 2
cassette 2
crosses 2
dominates 2
jean-michel 2
tenure 2
pius 2
xii 2
tribes 2
sumitomo 2
ltv 2
unwound 2
repo 2
anti-zionist 2
balinese 2
luzon 2
midway 2
cowboy 2
dolce 2
gabbana 2
urban 2
democratically-elected 2
edinburgh 2
rayo 2
vallecano 2
visitor 2
directed 2
deauville 2
terminals 2
masseurs 2
minded 2
repossess 2
calais 2
blistering 2
inched 2
jiuquan 2
bulent 2
ecevit 2
mesut 2
yilmaz 2
nightmarish 2
armor-piercing 2
adhikari 2
kangaroos 2
last-gasp 2
echoing 2
michelle 2
bachelet 2
jvc 2
vcr 2
organiser 2
budgetary 2
relocation 2
fuel-efficient 2
woodbridge 2
sorenstam 2
tat 2
hitched 2
meteorite 2
bugs 2
wooing 2
motorcycle 2
aprilia 2
storm-ravaged 2
drafts 2
ex-ministers 2
nabi 2
secrecy 2
proclaimed 2
panda 2
hides 2
executes 2
testifying 2
plagiarism 2
pele 2
nintendo 2
al-khalifa 2
develops 2
moelnlycke 2
ig 2
metall 2
breathe 2
madagascar 2
acquires 2
dior 2
tesla 2
silicon 2
barbs 2
smallpox 2
cafe 2
zapatista 2
government-rebel 2
rica 2
zhang 2
complied 2
gag 2
intraday 2
nationalism 2
lagos 2
malian 2
senna 2
essential 2
atef 2
sedki 2
overstayers 2
admiration 2
appoint 2
fund-led 2
propelling 2
straeuli 2
machine-gun 2
bund 2
registrations 2
sicily 2
pages 2
pantheon 2
vtv 2
canseco 2
sell-off 2
belgian-french 2
heinz 2
maxwell 2
rodrigo 2
susilo 2
bambang 2
jusuf 2
kalla 2
probable 2
firings 2
rain-affected 2
seasonal 2
toads 2
cesar 2
light-welterweight 2
oleg 2
davydov 2
yekini 2
polanski 2
typhoid 2
salt 2
organise 2
malmoe 2
plenum 2
record-breaker 2
workmen 2
soda 2
siphon 2
ebrd 2
diphtheria 2
serum 2
justified 2
hunan 2
bakili 2
muluzi 2
pasqua 2
waterhouse 2
gilmour 2
spratly 2
toilet 2
elevated 2
gilts 2
sustain 2
boao 2
dresdner 2
kepler 2
wessels 2
constabulary 2
founders 2
shilton 2
plymouth 2
strindberg 2
crewe 2
decked 2
zealanders 2
surveyed 2
mistakenly 2
confused 2
projections 2
sars 2
mcmanaman 2
ears 2
telia 2
e-mails 2
spam 2
uncompromising 2
italiano 2
mercantile 2
kompong 2
cham 2
verbiage 2
viva 2
ex-commander 2
salon 2
affleck 2
kai-shek 2
naples 2
khiam 2
prabhakar 2
ton 2
instigating 2
best-selling 2
pratchett 2
liles 2
mengistu 2
yamaha 2
ponting 2
huston 2
colored 2
connected 2
refrain 2
orient 2
stabilisation 2
organ 2
downwards 2
nine-year-old 2
grateful 2
climbers 2
gres 2
dames 2
reprimanded 2
vancouver 2
acceptance 2
th 2
michelin 2
starks 2
koos 2
sol 2
two-man 2
counter-productive 2
essayist 2
pinch 2
recoups 2
fool 2
greek-cypriot 2
jeffrey 2
dahmer 2
non-profit 2
punto 2
us-trained 2
samples 2
nazareth 2
crater 2
trends 2
pubs 2
libreville 2
ryder 2
concessionaires 2
troupe 2
lpga 2
scorers 2
haze 2
anticipating 2
mixed-sex 2
higgins 2
venues 2
ozone 2
ghent 2
olde 2
soy 2
indictment 2
malta 2
shelters 2
farms 2
iberdrola 2
sums 2
five-session 2
bruni 2
pistons 2
sevilla 2
thirty-three 2
warders 2
court-martialed 2
shootdown 2
sime 2
cpo 2
unsustainable 2
absurd 2
houellebecq 2
ashore 2
earners 2
uk 2
queue 2
circulated 2
bernal 2
headlong 2
dell 2
hewitt 2
hitzfeld 2
mediocre 2
npp 2
computer-driven 2
stich 2
nomination 2
low-lying 2
accommodate 2
mobutu 2
mandated 2
sought-after 2
pogroms 2
fatality 2
cows 2
hcl 2
axon 2
ntt 2
docomo 2
stillborn 2
mansell 2
neo-nazis 2
liberalize 2
checking 2
smithkline 2
beecham 2
sb 2
vanguard 2
medica 2
renamed 2
gauteng 2
brin 2
prosiebensat 2
rafto 2
terriers 2
crenshaw 2
mickelson 2
mou 2
barricades 2
oilfield 2
marietta 2
atal 2
behari 2
lehmann 2
gianfranco 2
abused 2
modernization 2
tunnels 2
max 2
sweat 2
oracle 2
greyhound 2
kyrgyzstan 2
foetus 2
carmakers 2
cambodians 2
acid 2
cordon 2
wpp 2
tns 2
forty-two 2
lovers 2
unprotected 2
discharged 2
reaffirm 2
marlboro 2
psychiatric 2
dubrovnik 2
elysees 2
gems 2
yoko 2
ono 2
abducting 2
watching 2
browns 2
allots 2
divorcing 2
easyjet 2
arizona 2
afghan-pakistan 2
morceli 2
joyner-kersee 2
madness 2
immmediately 2
charvis 2
oram 2
fluctuations 2
crocodile 2
juvenile 2
battalion 2
pile-up 2
pinto 2
witchcraft 2
safeguards 2
infecting 2
loyalty 2
il-sung 2
castles 2
tuareg 2
lips 2
conscience 2
milla 2
misuse 2
double-decker 2
hdw 2
tonya 2
mrs. 2
rink 2
mccague 2
magnetic 2
airbag 2
ogaden 2
counter-proposal 2
jemaah 2
islamiyah 2
foreword 2
shelled 2
evil 2
kanye 2
scuffle 2
cannon 2
burke 2
redman 2
normalise 2
generale 2
bernadotte 2
shwe 2
osborne 2
wolf 2
heartbeat 2
descended 2
yao 2
yilin 2
futility 2
privatize 2
mouthful 2
louvre 2
libor 2
euribor 2
robin 2
hood 2
aircrafts 2
glass 2
shaw 2
opel 2
introduces 2
midair 2
generic 2
dali 2
coupon 2
islamisation 2
zeng 2
merv 2
mols 2
diversion 2
trader 2
federated 2
macy 2
tires 2
treat 2
monkey 2
ringo 2
starr 2
saliva 2
earthquakes 2
arsonist 2
semi-nude 2
frogmen 2
airfields 2
wade 2
makarska 1
seaside 1
cereal 1
eliminated 1
rife 1
dc-# 1
kerry 1
bachelors 1
bachelor 1
mourners 1
tabulation 1
electorate 1
majlis 1
cp 1
cn 1
cedric 1
phoenix 1
suns 1
frost 1
airborne 1
examination 1
#.#-billion 1
basilica 1
preservation 1
prays 1
flyer 1
re-trial 1
warrington 1
jonathan 1
bloemfontein 1
sighted 1
highlands 1
m.a. 1
herman 1
stashed 1
ludlow 1
midlands 1
variations 1
pri 1
dispatched 1
empowered 1
case-## 1
value-added 1
plaster 1
gendarmes 1
granite 1
monument 1
montgomery 1
haaretz 1
jenny 1
shipley 1
worse-than-expected 1
wavered 1
forging 1
pan-american 1
digg 1
news-sharing 1
languages 1
besides 1
kimi 1
raikkonen 1
jocelyn 1
reelection 1
horrific 1
untested 1
fuming 1
dispell 1
six-month-old 1
happily 1
zealots 1
inheriting 1
mailing 1
hysteria 1
fast-approaching 1
upsets 1
reduces 1
envelope 1
slays 1
well-being 1
goggles 1
yuletide 1
tailbacks 1
wiesbaden 1
al-shahristani 1
infectious 1
restraining 1
paula 1
overtook 1
brewery 1
hops 1
number-two 1
bashir 1
garang 1
anaclet 1
rugged 1
dominguez 1
vice-presidential 1
ex-aide 1
zhongli 1
defict 1
reimbursement 1
densely-populated 1
outer 1
transmigration 1
bunch 1
gec-alsthom 1
tube 1
fico 1
gabi 1
licensing 1
schemes 1
three-match 1
chittagong 1
unjustified 1
slanted 1
disposal 1
terminus 1
bathed 1
glow 1
amcham 1
###-## 1
insensitive 1
yachting 1
flexible 1
mental 1
jab 1
highest-level 1
veronika 1
batons 1
sub-standard 1
stronger-than-expected 1
smoked 1
taxing 1
finacial 1
dole 1
hart 1
lane 1
ossie 1
ardiles 1
dents 1
dino 1
celtics 1
tacks 1
speeches 1
ridiculing 1
ying-jeou 1
envisaged 1
trichet 1
unwed 1
corazon 1
hooded 1
fatigues 1
uniformed 1
soul-searching 1
mobilized 1
unlawful 1
racks 1
lambastes 1
electors 1
turnout 1
motogp 1
iraqi-kuwaiti 1
ka-shing 1
hutchison 1
whampoa 1
hk-listed 1
explanations 1
downplaying 1
seriousness 1
murky 1
thames 1
reunite 1
shores 1
blacklisted 1
permits 1
##s 1
redmond 1
nightly 1
loya 1
jirga 1
institutes 1
ex-wives 1
balloting 1
artifacts 1
run-in 1
panam 1
archives 1
digest 1
fiasco 1
revelling 1
splendor 1
shrinking 1
non-permanent 1
wards 1
frechette 1
haniya 1
egyptian-brokered 1
managerial 1
gradual 1
b-## 1
french-language 1
du 1
b-##s 1
well-heeled 1
icebreaker 1
groupies 1
break-even 1
cuba-us 1
noticeably 1
disapproved 1
mexicans 1
disagree 1
bdr 1
depreciation 1
cruz 1
pitting 1
heartland 1
zalmay 1
khalilzad 1
chides 1
shellfire 1
kourou 1
corporations 1
unrwa 1
promotor 1
micky 1
duff 1
homely 1
gifted 1
orator 1
minibus 1
level-crossing 1
symbols 1
poznan 1
strike-torn 1
major-league 1
churning 1
swirls 1
em 1
mugen-honda 1
pervez 1
musharraf 1
endeavors 1
invokes 1
hazel 1
ex-lawmaker 1
bahn 1
oct 1
a-list 1
dicaprio 1
amass 1
mingles 1
radiation 1
yielding 1
scalded 1
hamburger 1
scalding 1
licked 1
i. 1
trouble-makers 1
sammy 1
daryl 1
thorsten 1
hohmann 1
elimination 1
##-ball 1
luciano 1
nicoletta 1
mantovani 1
madman 1
expanse 1
painfully 1
melts 1
connections 1
yields 1
unionists 1
##-month-old 1
hampered 1
cloak 1
short-sellers 1
coping 1
high-powered 1
strongly-worded 1
motorcyclists 1
routinely 1
pavements 1
pedestrian 1
bikers 1
reina 1
polyp 1
botched 1
pursing 1
methamphetamine 1
punishable 1
shimbun 1
procession 1
buster 1
keepers 1
cruelty 1
videotaped 1
unconscious 1
climax 1
initialing 1
vibrating 1
vibrations 1
clubbers 1
nightspot 1
pics 1
scolds 1
whites 1
##-meter 1
###-foot 1
euphoric 1
assigns 1
unstoppable 1
stretched 1
strokes 1
purse 1
snowy 1
cliff 1
boycotted 1
camping 1
singers 1
gubernatorial 1
saparmurad 1
niyazov 1
post-soviet 1
alarms 1
bungalow 1
kunar 1
aip 1
muster 1
sniffs 1
slay 1
azharuddin 1
indicative 1
demilitarization 1
salaries 1
procurators 1
laced 1
sanyuan 1
suspense 1
punctuated 1
seamen 1
wrecking 1
scuffles 1
hikmat 1
familia 1
lynn 1
shatter 1
bse 1
remanded 1
mega-projects 1
enlargment 1
parachute 1
parachutist 1
propeller 1
jumper 1
starred 1
starsky 1
hutch 1
foch 1
sails 1
disruptive 1
shiite-led 1
hard-earned 1
ex-executives 1
industrials 1
gable 1
tracy 1
fonda 1
desecration 1
rebuilt 1
vaccines 1
dr. 1
piot 1
fixes 1
unsteady 1
waiver 1
bowls 1
jammu 1
sided 1
off-spinner 1
boos 1
ever-present 1
refute 1
jewelry 1
squelch 1
siding 1
trans-afghan 1
week-old 1
chooses 1
premieres 1
subdue 1
sinkholes 1
farther 1
pry 1
parched 1
withers 1
anti-narcotics 1
high-quality 1
hauls 1
policy-maker 1
castigates 1
guatemalan 1
silverback 1
awf 1
dimitri 1
lodging 1
achieves 1
sauber 1
tormented 1
ruffling 1
pomp 1
riotous 1
larger-than-life 1
ruffles 1
eye-popping 1
presiding 1
tolled 1
renovate 1
parish 1
sesion 1
reappearing 1
resurface 1
tylenol 1
acetaminophen 1
punishing 1
irregular 1
petit 1
pastoral 1
guillotine 1
simply 1
forth 1
koranic 1
surly 1
rattling 1
wagons 1
companions 1
cheers 1
commutes 1
long-held 1
ex-eu 1
breathtaking 1
shell-shocked 1
topsy-turvy 1
csu 1
derision 1
pr 1
publish 1
spots 1
unnoticed 1
corrupting 1
griffin 1
yaounde 1
camair 1
refuted 1
tripping 1
trap 1
wartorn 1
chao-min 1
pongsaklek 1
wonjongkam 1
krefeld 1
flourishing 1
combatant 1
tello 1
gridlocked 1
papers 1
vocal 1
tract 1
implored 1
implores 1
sparkling 1
inspirational 1
patria 1
ljubljana 1
interfere 1
schoolgirls 1
holly 1
wells 1
jessica 1
chapman 1
int 1
entourage 1
dispossessed 1
dereliction 1
rasul 1
dagestan 1
dagestani 1
fortified 1
solna 1
heikki 1
haavisto 1
minister-elect 1
spite 1
glimmer 1
saudi-american 1
invective 1
puzzling 1
tale 1
italian-funded 1
contradicted 1
strollers 1
stroller 1
mums 1
backlog 1
undelivered 1
plotters 1
johann 1
olav 1
oriented 1
scandal-wracked 1
plagiarised 1
lags 1
empresa 1
aeronautica 1
embraer 1
instructors 1
up-front 1
debtors 1
correspondence 1
muntasser 1
someone 1
factbox 1
utilities 1
windfall 1
franz 1
blight 1
beggars 1
abgal 1
mahdi 1
urs 1
kaelin 1
mayer 1
soro 1
ranges 1
un-proposed 1
disengagement 1
kinshasa 1
disengage 1
two-member 1
shrank 1
elway 1
chest 1
alternatives 1
welter 1
inglorious 1
squares 1
recon 1
eject 1
vividly 1
distinctive 1
leaf 1
colorful 1
downstream 1
oils 1
nt 1
inked 1
szczecin 1
forwarded 1
inks 1
ticketing 1
full-year 1
lodge 1
staples 1
bono 1
ripper 1
warily 1
approaches 1
evict 1
evicting 1
taha 1
leniency 1
pickets 1
reintroducing 1
malabar 1
mont 1
confounding 1
predictions 1
apathy 1
oversaw 1
anti-invasion 1
fractionally 1
vetoed 1
peters 1
misled 1
censures 1
kpa 1
mass-produce 1
smell 1
receptors 1
remittances 1
rhinoceros 1
wonder 1
excavating 1
monarchs 1
reverts 1
fpoe 1
strache 1
pairing 1
morrison 1
reaped 1
china-owned 1
pharma 1
novartis 1
koninklijke 1
slowest 1
scheduling 1
throb 1
pascal 1
dormant 1
jalal 1
undermine 1
stunt 1
trotta 1
asad 1
sarsfield 1
flagged 1
pyongyang-based 1
breast-feeding 1
impaired 1
fatwa 1
marketers 1
bashes 1
ambulance 1
spartak 1
valiant 1
zagreb-belgrade 1
taser 1
tasers 1
cops 1
tuscan 1
grammes 1
ounces 1
florence 1
gourmets 1
dsv 1
lash 1
shuns 1
ramped 1
lever 1
backers 1
toymaker 1
mohair 1
sasian 1
directions 1
undeterred 1
fuse 1
calin 1
tariceanu 1
blends 1
interact 1
bands 1
under-##s 1
gullikson 1
trans-atlantic 1
subaru 1
nearest 1
spandau 1
injure 1
cne 1
warmonger 1
caldera 1
antics 1
anyone 1
squabbles 1
taichung 1
kfor 1
jo 1
nechayev 1
holidaying 1
sections 1
florent 1
sinama-pongolle 1
alight 1
flourish 1
reminders 1
cathy 1
consumes 1
reasonable 1
adequate 1
kristin 1
nagorny 1
shining 1
skyscrapers 1
loathing 1
pay-per-view 1
nudist 1
specially 1
slope 1
psp 1
blazed 1
hilltop 1
six-million-dollar 1
skittled 1
skittle 1
fatty 1
sodas 1
hardest 1
womens 1
milagros 1
top-seeded 1
hashem 1
referring 1
shipbuilders 1
mergers 1
mmc 1
refers 1
seung-soo 1
limassol 1
abortive 1
transfered 1
speedier 1
leftists 1
watered-down 1
invade 1
multirole 1
jas 1
gripen 1
densely 1
##.#-pct 1
yemeni-saudi 1
collenette 1
piled 1
stan 1
convulsing 1
real-time 1
caliber 1
besting 1
congressmen 1
marital 1
elitist 1
compiler 1
supplied 1
dowd 1
jon 1
sleightholme 1
forgettable 1
'em 1
dour 1
suicidal 1
sleepy 1
railtrack 1
loaf 1
roundly 1
stigma 1
prevails 1
notable 1
budgeting 1
creeps 1
d-day 1
tyranny 1
encircled 1
weapons-grade 1
counter-offensive 1
mathews 1
phosa 1
creditor 1
poorest 1
contentious 1
bancorp. 1
rewards 1
severest 1
wood 1
impediment 1
succesful 1
zvornik 1
disturbed 1
snipers 1
shrewd 1
lookout 1
immune 1
facilitated 1
jibril 1
rajub 1
bearer 1
vaccination 1
bosson 1
countrywide 1
permitting 1
krupp-hoesch 1
stahl 1
krupp 1
tottered 1
pip 1
quash 1
longman 1
anti-iraq 1
buy-out 1
charted 1
life-long 1
disabilities 1
deserves 1
poacher 1
four-nation 1
wedesday 1
defraud 1
anaesthetics 1
combatting 1
croat-moslem 1
offsetting 1
georgians 1
lauded 1
belet 1
huen 1
seams 1
one-mile 1
underwater 1
lowlands 1
sidwell 1
pease 1
harald 1
sonja 1
emma 1
tallulah 1
meter 1
hard-pressed 1
planted 1
set-back 1
gird 1
irrelevant 1
revel 1
fist 1
crossroads 1
multiparty 1
riyadh-based 1
aec 1
printed 1
low-caste 1
untouchables 1
pro-thaksin 1
edgy 1
test-fired 1
multiple-warhead 1
test-fires 1
miserable 1
masterclass 1
inspirations 1
currie 1
natal 1
rats 1
flees 1
combination 1
vacuum 1
lame-duck 1
renowned 1
shemi 1
pet 1
veterinarians 1
attached 1
pare 1
russia-china 1
trademark 1
war-shattered 1
medium-pacer 1
humbled 1
star-studded 1
humbles 1
abderrahman 1
spoiled 1
sparkles 1
dodge 1
pfp 1
ellis 1
promoters 1
waged 1
reemerges 1
moslem-croat 1
lefebvre 1
pastime 1
ex-major 1
leaguers 1
ex-bosnian 1
dsp 1
medium-sized 1
non-communist 1
disbands 1
malindi 1
witch 1
unleashing 1
hitters 1
revitalized 1
clintons 1
unloaded 1
german-owned 1
qiqihar 1
ruf 1
corporal 1
foday 1
sankoh 1
kandeh 1
dusseldorf 1
machiavellian 1
steelmakers 1
finalises 1
unconvinced 1
abductors 1
lanzarote 1
knife-edge 1
reelect 1
ultimate 1
kid 1
dioxide 1
resists 1
emission 1
regaining 1
leighton 1
talents 1
jogs 1
unconquered 1
czechs 1
incompetent 1
whatsoever 1
unfounded 1
anti-saddam 1
violeta 1
cuadra 1
intrusive 1
mixed-race 1
dwarf 1
curious 1
stuntman 1
dare 1
checked 1
rejoined 1
rejoins 1
beijing-hong 1
ramsau 1
lay-off 1
five-hour 1
delisted 1
copter 1
pattaya 1
espy 1
privately 1
gregor 1
gysi 1
hunger-strike 1
opportunistic 1
financed 1
walvis 1
hwang 1
jang-yop 1
bounded 1
relaxation 1
megabit 1
drams 1
festering 1
borrowed 1
borrows 1
moored 1
fielding 1
over-all 1
four-hour 1
reneging 1
wanton 1
involuntary 1
benigno 1
fitial 1
glitches 1
relieving 1
rossano 1
archetype 1
faction-ridden 1
stanford 1
first-year 1
examiner 1
spouses 1
scams 1
khin 1
nyunt 1
screams 1
ironic 1
premiers 1
adjacent 1
grated 1
unacceptably 1
###-day 1
small-screen 1
obsolete 1
concepts 1
adventure 1
digs 1
lorries 1
ioan 1
extradited 1
preach 1
pronounce 1
beatification 1
nun 1
tories 1
constantin 1
mitsotakis 1
keynote 1
three-quarters 1
colluding 1
collusion 1
indices 1
buffered 1
maligned 1
smack 1
advocacy 1
systematically 1
soybean-based 1
discontinued 1
side-effects 1
auckland 1
toxicologist 1
iain 1
suitability 1
candidacies 1
newer 1
motorbike 1
catches 1
kms 1
dutch-born 1
defies 1
blot 1
foreseen 1
offficials 1
keb 1
largescale 1
##-country 1
higher-than-expected 1
jody 1
authorization 1
calcutta 1
cunning 1
royce 1
high-definition 1
mccain-obama 1
ronald 1
voluntary 1
mechanism 1
lifeboat 1
seating 1
welding 1
cylinder 1
zhejiang 1
pitcher 1
leagues 1
mom 1
props 1
sponsored 1
colby 1
unpleasant 1
froehlich 1
bolted 1
embedded 1
fnl 1
hardy 1
shackleton 1
cooks 1
onur 1
marmara 1
conclave 1
roberts 1
phillip 1
consultancy 1
headstrong 1
us-indonesian 1
depositary 1
valuing 1
wwii 1
vulnerability 1
unwavering 1
bluechip 1
gleaned 1
coveted 1
pitiful 1
snares 1
emile 1
sponsoring 1
invoicing 1
therapist 1
father-in-law 1
decay 1
mormon 1
hypocrisy 1
state-subsidised 1
yekaterinburg 1
spills 1
korunas 1
bloc-wide 1
re-investment 1
abandons 1
dominating 1
larfaoui 1
applauded 1
burnish 1
conquer 1
conquest 1
locations 1
molesting 1
refocus 1
ill-tempered 1
anxieties 1
castigated 1
farmyard 1
taunt 1
sorties 1
pollute 1
contraceptives 1
cnb 1
intensification 1
aircraft-carrier 1
exits 1
unwittingly 1
underlined 1
shun 1
bowens 1
reminding 1
megastars 1
adversaries 1
readmission 1
snagging 1
lukewarm 1
readmitting 1
capricious 1
thumbs 1
swapped 1
temples 1
arlanda 1
tajikstan 1
engendering 1
evander 1
ex-champion 1
title-holder 1
weaver 1
kweichow 1
moutai 1
yantai 1
anti-arab 1
kach 1
windscreens 1
mosquito-borne 1
tit-for-tat 1
insistence 1
banded 1
bouteflika 1
predicated 1
pessimistic 1
befall 1
complains 1
double-murder 1
embracing 1
anatoly 1
sobchak 1
springer 1
polish-language 1
tueday 1
pay-television 1
subscriptions 1
swiss-based 1
richemont 1
abates 1
neck-and-neck 1
charts 1
chart-topping 1
delegate 1
two-time 1
aafia 1
siddiqui 1
mestiri 1
kwajalein 1
cornerstone 1
marshalls 1
lunar 1
truly 1
smile 1
libelling 1
rachida 1
dati 1
faked 1
cv 1
berlin-based 1
much-needed 1
miroslav 1
lajcak 1
witholding 1
perversion 1
reality 1
salvadoran 1
polarization 1
represents 1
polarized 1
friction 1
odd 1
governs 1
profitable 1
marksman 1
marcio 1
ko 1
mea 1
shareholdings 1
beers 1
gazes 1
yankee 1
yankees 1
departing 1
scottsdale 1
scorpions 1
penetrate 1
defenses 1
gregg 1
cardinals 1
.### 1
philandering 1
processed 1
processes 1
tonnage 1
darryl 1
on-field 1
exploits 1
off-field 1
dodging 1
singapore-based 1
consulting 1
datu 1
maguindanao 1
targetted 1
amedeo 1
carbone 1
nine-man 1
priorities 1
materiel 1
waist-high 1
shallow 1
realize 1
alleviation 1
upwardly 1
grown 1
resistant 1
drug-resistant 1
severs 1
pickard 1
manning 1
escalator 1
decades-long 1
capriati 1
martina 1
andalusia 1
yohei 1
kono 1
moots 1
matsushita 1
panasonic 1
mungiki 1
premeditated 1
pistol 1
ex-boss 1
earner 1
earning 1
highest-paid 1
foundry 1
zip 1
packers 1
inconceivable 1
vila 1
builder 1
steinbrueck 1
toyoda 1
jiji 1
krause 1
liar 1
dwight 1
miami-based 1
co-existence 1
haitians 1
yerevan 1
strenuously 1
parley 1
t-systems 1
patriot 1
grappling 1
possuvaliuk 1
arraigned 1
arraignment 1
arantxa 1
itf 1
claudia 1
nolte 1
informer 1
hated 1
bounds 1
hinge 1
dordogne 1
french-belgian 1
non-governmental 1
academics 1
five-billion-dollar 1
salvatore 1
ferragamo 1
catwalks 1
neon 1
shades 1
bales 1
prada 1
satisfaction 1
reprocessing 1
yongbyon 1
depression-era 1
reprisals 1
installs 1
zohdi 1
nashashibi 1
fanie 1
specify 1
ultra-left 1
irmgard 1
contemporary 1
theatre 1
age-old 1
draconian 1
organizing 1
aided 1
favorable 1
mortgage-backed 1
thistle 1
firhill 1
williams-renault 1
agony 1
dislocated 1
unscrupulous 1
buck 1
taint 1
spirited 1
juniors 1
ellen 1
sirleaf 1
battlefield 1
muthanna 1
sumerian 1
tawfiq 1
tax-free 1
instantly 1
anonymity 1
troublespot 1
contradictory 1
straw 1
stupid 1
purporting 1
mauritian 1
endorsement 1
sightseeing 1
ppi 1
annum 1
banana 1
bananas 1
specialised 1
r 1
embroiling 1
intercontinental 1
hot-seat 1
erase 1
nieminen 1
donation 1
ecuadorans 1
ushers 1
slant 1
vaunted 1
reciprocate 1
sullies 1
chatterjee 1
hypnotized 1
re-evaluating 1
shivered 1
cups 1
skip 1
sip 1
rita 1
suessmuth 1
accommodation 1
acknowledging 1
substantially 1
downbeat 1
sep 1
yaakov 1
tzur 1
burglary 1
gambian 1
retention 1
circular 1
normalize 1
hectoring 1
einstein 1
lambast 1
gearing 1
eichel 1
buttresses 1
norbert 1
bluem 1
glasses 1
ouzo 1
rainbow 1
axes 1
retrieved 1
weeping 1
blood-soaked 1
clothes 1
grief 1
somehow 1
jeopardised 1
seven-game 1
coalition-building 1
narrowest 1
confiscations 1
pharaoh 1
family-owned 1
embarrassment 1
alleges 1
offcial 1
melanie 1
understood 1
rosy 1
afterglow 1
seizures 1
autumn 1
wallets 1
thinner 1
exodus 1
pressuring 1
cite 1
soleil 1
slums 1
carrefour 1
cardboard 1
usher 1
brady 1
engineered 1
touchdown 1
heartbreaker 1
swindlers 1
pageants 1
ticklish 1
respectable 1
humiliations 1
magician 1
emulate 1
illusion 1
torchlight 1
goats 1
camels 1
preoccupied 1
hristo 1
naturally 1
beasts 1
flexes 1
incensed 1
extra-marital 1
credit-crunch 1
midfield 1
portion 1
hard-fought 1
accounts 1
quarrelling 1
santrac 1
##-strong 1
torrijos 1
reluctant 1
clung 1
inn 1
subsidiaries 1
chart 1
pattana 1
sanan 1
kachornprasart 1
boredom 1
peasant 1
sivas 1
hogg 1
redefines 1
kfar 1
al-yussef 1
nasser 1
al-ahmed 1
inner 1
kessler 1
bother 1
ysp 1
amin 1
qassem 1
monsoon 1
najib 1
razak 1
gnp 1
ramifications 1
half-billion-dollar 1
amassed 1
berge 1
ysl 1
espana 1
sa 1
cardenas 1
portico 1
snc-lavalin 1
gomorrah 1
government-run 1
goliath 1
beginnings 1
lineup 1
influences 1
stories 1
superheroes 1
conflict-riven 1
rebel-controlled 1
microchip 1
fixed-rate 1
zero-coupon 1
rejuvenate 1
vintage 1
rodney 1
brett 1
mirror 1
khanaqin 1
sizeable 1
plaguing 1
transporters 1
f 1
amounting 1
spoiler 1
behemoth 1
roller 1
coaster 1
sternly 1
cris 1
cater 1
touchdowns 1
vikings 1
seasonally-corrected 1
comprise 1
supervise 1
six-point 1
istat 1
cease-fire 1
capsules 1
heart-attack 1
re-opened 1
cinched 1
non-league 1
sharratt 1
waqf 1
endowments 1
jeopardized 1
undermines 1
electrifying 1
shame 1
cowardice 1
likud 1
french-us 1
alcatel-lucent 1
infringement 1
trained 1
careered 1
alberta 1
disorder 1
get-tough 1
recreating 1
fibre-optic 1
flemish 1
karel 1
pinxten 1
wrangles 1
volcanic 1
specialist 1
yvan 1
third-ranking 1
ought 1
daddy 1
world-record 1
refreshingly 1
expansive 1
drought-stricken 1
krouge 1
zou 1
jiahua 1
injunction 1
exonerated 1
exonerates 1
gig 1
irritant 1
gale 1
znamenskoye 1
waving 1
life-sized 1
stickers 1
reservation 1
patrols 1
izmir 1
newborns 1
franco-us 1
staunchly 1
pro-american 1
berger 1
non-fiction 1
snatches 1
nudged 1
admissions 1
pips 1
hong-koo 1
constructed 1
southernmost 1
sanya 1
underwriting 1
residual 1
teotihuacan 1
unseen 1
acted 1
steers 1
swears 1
careful 1
carefully 1
calorie 1
menus 1
dabbles 1
abdur 1
biswas 1
leapfrogged 1
overtakes 1
manages 1
temblor 1
seismologist 1
evasive 1
owes 1
fijian 1
algerians 1
lorenzo 1
ex-health 1
orchard 1
adhere 1
restriction 1
thinly-veiled 1
reference 1
minaret 1
roofs 1
shelby 1
adamant 1
qualifies 1
rolf 1
purchased 1
rulings 1
small-lot 1
constituting 1
war-risk 1
zhirinovsky 1
spit 1
spits 1
sort 1
islamabad-based 1
merely 1
multi-day 1
connecting 1
cusco 1
inca 1
perurail 1
hacked 1
softer 1
directive 1
downpors 1
battens 1
storm-struck 1
slandered 1
depicted 1
springs 1
jr. 1
fars 1
all-pace 1
length 1
pinned 1
pin 1
subsides 1
perhaps 1
scorer 1
slackening 1
unnecessarily 1
formalities 1
verdi 1
eight-day 1
liberties 1
forges 1
edict 1
sanctioning 1
tones 1
mcgovern 1
turkish-russian 1
tae-woo 1
dlp 1
military-backed 1
offspring 1
mini-bus 1
thirty-two 1
fmc 1
dialysis 1
renal 1
treatments 1
holdout 1
trashed 1
scorn 1
panicky 1
solved 1
ridiculous 1
peiyun 1
briefed 1
wirth 1
briefs 1
dutch-belgian 1
tab 1
expenses 1
gobbling 1
overuse 1
rubber-stamp 1
taro 1
constituency 1
self-described 1
subculture 1
akihabara 1
concession 1
sop 1
actively 1
activated 1
arie 1
amit 1
activates 1
stimulated 1
subscribers 1
handsets 1
mohsen 1
peoples 1
muslim-led 1
laxity 1
countering 1
complacency 1
liege 1
forearm 1
fingers 1
belgians 1
accompany 1
incriminate 1
stepashin 1
caning 1
pragmatists 1
technocrats 1
gusts 1
hierarchy 1
steamed 1
singlehanded 1
steams 1
keira 1
canet 1
eva 1
mendes 1
frederick 1
technicalities 1
ex-zambian 1
azeri 1
shuttered 1
shutters 1
dockers 1
restricting 1
grounding 1
sprinter 1
katrin 1
acknowledgement 1
renunciation 1
commitee 1
mystic 1
frisking 1
quantity 1
inflation-busting 1
midwife 1
rebirth 1
involves 1
safaris 1
inconclusively 1
unbeatable 1
# #\/# 1
calcio 1
aerospatiale 1
fo 1
measured 1
clinches 1
vapor 1
ths 1
didier 1
reynders 1
wiping 1
vestiges 1
cielito 1
habito 1
convincing 1
patterned 1
opposite 1
colder 1
jetstream 1
deprived 1
conducts 1
armenian-populated 1
short-course 1
#.#-foot 1
platinum 1
atr-## 1
consent 1
teach 1
subjects 1
prohibited 1
murkowski 1
muoi 1
kenny 1
series-levelling 1
m-## 1
free-kick 1
deserved 1
humanely 1
father-to-be 1
jokingly 1
smiling 1
violence-ridden 1
arturo 1
romani 1
forgery 1
forgeries 1
repaid 1
repays 1
undp 1
eviction 1
wolfsburg 1
hurdles 1
svetla 1
dimitrova 1
aircraft-maker 1
njongonkulu 1
ndungane 1
somalian 1
stabilised 1
imbalance 1
males 1
sterilised 1
three-dimensional 1
desktop 1
endangers 1
overspending 1
usinor-sacilor 1
brusque 1
rejoinder 1
aggressors 1
reacts 1
gargantuan 1
hindered 1
coolly 1
medgyessy 1
regardless 1
secondary 1
firebombs 1
taboo 1
topic 1
sexology 1
slip-up 1
three-way 1
wilt 1
peaks 1
himalayas 1
cordless 1
facsimile 1
modems 1
audible 1
deteriorates 1
notion 1
fina 1
tambor 1
drum 1
woken 1
meal 1
sunrise 1
inclusive 1
groundless 1
refutes 1
bolivar 1
owe 1
candu 1
shirking 1
registration 1
snoop 1
pandora 1
interventions 1
function 1
continuity 1
jean-philippe 1
lund 1
spratlys 1
arranges 1
eufor 1
althea 1
pontiff 1
second-hand 1
curators 1
yousuf 1
raza 1
gilani 1
belt 1
fruitless 1
eddy 1
tansil 1
year-to-date 1
caspian 1
soaks 1
wailing 1
sped 1
swerved 1
homicides 1
enlist 1
obtaining 1
coward 1
psf 1
alejandro 1
physician 1
abdoujaparov 1
kamikaze 1
sprinting 1
paris-roubaix 1
##km 1
showered 1
petals 1
starvation 1
archeological 1
money-spinning 1
saifur 1
harrier 1
hms 1
best-ball 1
jc 1
penney 1
inspecting 1
plucked 1
windies 1
marketplace 1
deflecting 1
monasteries 1
incredulity 1
leila 1
piccard 1
charismatic 1
star-turned-politician 1
ex-movie 1
mantle 1
alastair 1
weathered 1
ipi 1
sharemarket 1
onboard 1
mwai 1
kibaki 1
drenching 1
edith 1
cresson 1
commissioners 1
dmitri 1
decks 1
think 1
kilogramme 1
kg 1
sprayed 1
iprinda 1
sighting 1
#,###-member 1
banner 1
dfl 1
leverkusen 1
starke 1
mindoro 1
pressing 1
kalimantan 1
accosting 1
whenever 1
icing 1
sergi 1
entries 1
strongest 1
dockside 1
cabins 1
undergone 1
surround 1
reverberating 1
rearguard 1
flame 1
torch 1
harmed 1
iaaf 1
eulex 1
bleeding 1
stuffed 1
kandahar 1
passers-by 1
unremitting 1
t-bill 1
chek 1
lap 1
bukavu 1
rpf 1
tacked 1
disruptions 1
markus 1
burgling 1
marksmen 1
ex-lawmakers 1
obliged 1
reminds 1
billboard 1
dogg 1
soothing 1
fulcrum 1
antalya 1
armando 1
emilio 1
guebuza 1
edson 1
macuacua 1
sceptics 1
beefed-up 1
basking 1
unpopular 1
months-long 1
rebelled 1
disturbance 1
consolidating 1
dining 1
lagoon 1
invades 1
announcements 1
touting 1
imminently 1
exceptional 1
one-off 1
bosphorus 1
bosanska 1
krupa 1
handgun 1
flesh 1
zips 1
vests 1
monsanto 1
portraying 1
promiscuity 1
finalize 1
trimmed 1
assembled 1
emigrate 1
us-inspired 1
widen 1
displayed 1
prognosis 1
smarter 1
semantic 1
teaches 1
meanings 1
vocabulary 1
graduate 1
figuring 1
rhodesian 1
ex-formula 1
derek 1
mavrodi 1
mmm 1
tortuous 1
rewrite 1
hardliners 1
habitual 1
chanting 1
usual 1
iran-us 1
fresco 1
afraid 1
caesarian 1
abnormal 1
aggregate 1
sion 1
languishes 1
jeanne 1
d'arc 1
##-gun 1
salute 1
statuette 1
humphrey 1
bogart 1
manhattan 1
shivering 1
g-strings 1
rotterdam 1
boots 1
coptic 1
malay 1
anytime 1
sunil 1
les 1
ferdinand 1
sinclair 1
jetstar 1
conglomerates 1
hugged 1
overjoyed 1
six-country 1
swindling 1
riskier 1
darwish 1
unworthy 1
minerals 1
inadequate 1
al-hayat 1
al-kurbi 1
fms 1
car-free 1
relented 1
dodged 1
dragnet 1
razzak 1
barings 1
stopover 1
irritated 1
repercussions 1
ghali 1
popped 1
kpc 1
yesterday 1
resuscitated 1
damascus-based 1
dflp 1
leaderships 1
epitomize 1
disgust 1
muzzle 1
feliciano 1
dac 1
belching 1
ash 1
overlooking 1
confess 1
three-fourths 1
peruvians 1
malnourished 1
achieved 1
squabble 1
sours 1
holmes 1
ravitch 1
pipes 1
laminated 1
woven 1
ecct 1
contador 1
well-positioned 1
stainless 1
essays 1
acknowledge 1
adaptation 1
nerlinger 1
ricksen 1
pushpa 1
bhatia 1
dilemma 1
scans 1
fancy 1
mueller 1
vet 1
mockery 1
practiced 1
nails 1
narayanganj 1
rumbled 1
entities 1
obstinately 1
astronomical 1
boldly 1
manet 1
olympia 1
titian 1
delighting 1
maja 1
illustrious 1
nudes 1
learning 1
three-month-long 1
visions 1
baden 1
wuerttemberg 1
gravestones 1
brawling 1
cheering 1
gays 1
reneged 1
instructed 1
solicitors 1
fulltime 1
professionalism 1
gaon 1
sephardi 1
mt. 1
handoff 1
rotating 1
decision-making 1
brazoria 1
cabinda 1
optical 1
accompanied 1
dissenting 1
orval 1
faubus 1
desegregate 1
orville 1
negroponte 1
thirty-eight 1
miniser 1
irreverent 1
timid 1
petrodollar 1
rehabilitating 1
convert 1
warden 1
converts 1
coy 1
tactic 1
assignment 1
saddled 1
converging 1
stampeded 1
miserably 1
suchart 1
guiding 1
worry 1
physio 1
occupies 1
bengal 1
nv 1
storing 1
conventional 1
disc 1
neal 1
peterson 1
viewed 1
reminiscences 1
bilingual 1
kindergarten 1
extention 1
expire 1
aluminum 1
confiding 1
cardiac 1
sandinista 1
emotions 1
pleasant 1
ex-british 1
lustiger 1
oft-injured 1
flexor 1
penguins 1
plovdiv 1
conductor 1
orchestra 1
chaudhry 1
shujaat 1
hussain 1
strode 1
explorers 1
existed 1
archeologist 1
prieto 1
dens 1
essex 1
left-arm 1
seamer 1
ilott 1
newly-wed 1
newlyweds 1
expropriated 1
burgled 1
graphite 1
moderated 1
free-scoring 1
reorganise 1
psbr 1
yegor 1
mishandling 1
mehmet 1
talat 1
najjar 1
teamed 1
seniors 1
diner 1
incite 1
jobseekers 1
setting-up 1
sook 1
disable 1
eight-wicket 1
second-wicket 1
kirsten 1
sandringham 1
norfolk 1
pham 1
dinh 1
tung 1
annexation 1
igniting 1
trapping 1
fast-bowler 1
moro 1
harassed 1
tosses 1
hernando 1
hulk 1
crucifixes 1
decrepit 1
my 1
shortlist 1
strangulation 1
bulger 1
carolos 1
papoulias 1
ichiro 1
harder 1
kilo 1
dushanbe 1
jakaya 1
kikwete 1
ex-secret 1
###-index 1
stranger 1
peggy 1
keith 1
nf 1
trunks 1
ipc 1
tear-gas 1
radoslaw 1
sikorski 1
precursor 1
jealous 1
uri 1
congregation 1
century-old 1
thorvald 1
baranja 1
serb-controlled 1
cousin 1
programming 1
non-violent 1
accountable 1
mccurry 1
bathtubs 1
baths 1
twists 1
dizzy 1
digests 1
relegated 1
generates 1
overshadows 1
calculated 1
romano 1
prodi 1
tasked 1
moise 1
renegades 1
quintessential 1
speeded 1
swx 1
long-planned 1
somber 1
ibovespa 1
trick 1
repairs 1
business-friendly 1
requesting 1
amusement 1
scanning 1
credibility 1
championing 1
skull 1
constant 1
lieu 1
unthinkable 1
pinnacle 1
riposte 1
feral 1
minurcat 1
centrafrica 1
salvaged 1
traumatic 1
wait-and-see 1
limiting 1
maliki 1
strains 1
zain 1
dinars 1
bozidar 1
djelic 1
infuriated 1
unfreeze 1
infuriates 1
microelectronics 1
wastes 1
beacons 1
beacon 1
protocols 1
hallucinogenic 1
memphis 1
sprains 1
onlookers 1
enugu 1
courting 1
terminally 1
mini-arab 1
pathetic 1
plenary 1
outages 1
sali 1
berisha 1
prolongs 1
yerin 1
mercurial 1
leg-spinner 1
ebbs 1
capitulation 1
brondby 1
hyderabad 1
ciba-geigy 1
luftwaffe 1
outlined 1
decomposed 1
meredith 1
kercher 1
overcharged 1
shakeout 1
hasina 1
wajed 1
undercuts 1
bweiz 1
swollen 1
sulawesi 1
untie 1
planets 1
instructions 1
taoist 1
subsisted 1
prodigal 1
instruction 1
raul 1
grillo 1
ripples 1
milorad 1
dodik 1
overburdening 1
aggravated 1
seismological 1
zeroed 1
pre-empt 1
eu-turkish 1
helweh 1
hackneyed 1
unimaginative 1
israeli-backed 1
preval 1
opting 1
commercially 1
viable 1
boyle 1
slumdog 1
betrayed 1
rosary 1
baskets 1
glow-in-the-dark 1
statues 1
rosaries 1
seductress 1
overzealous 1
ultimately 1
cleaning 1
fours 1
suddenly 1
upturn 1
recession-weary 1
ache 1
paralyse 1
fuxin 1
wept 1
oeuvre 1
karnataka 1
australasian 1
eponymous 1
singer-songwriter 1
gerald 1
merseyside 1
tasmanian 1
jamie 1
and-a-half 1
totalitarianism 1
two-legged 1
striped 1
pyjamas 1
relationships 1
charities 1
fringe 1
mechanisms 1
maintains 1
joao 1
batista 1
elias 1
hrawi 1
eveline 1
widmer-schlumpf 1
yelstin 1
rested 1
rests 1
spokeman 1
counter-narcotics 1
resembling 1
look-alike 1
hoddle 1
inspire 1
stamford 1
manuscript 1
biondi 1
fourth-biggest 1
granic 1
ex-us 1
hazard 1
spectacularly 1
gazette 1
gold-mining 1
arbil 1
cruising 1
consignment 1
smeared 1
ageism 1
co-chairman 1
shakir 1
yanukovych 1
abdominal 1
chanda 1
season-ending 1
reforming 1
feature 1
surf 1
basilan 1
arabiya 1
moguls 1
israel-plo 1
cal 1
envisage 1
stadiums 1
desired 1
paliament 1
foresight 1
najmuddin 1
commemorating 1
shelly 1
mti 1
rna 1
cleaned 1
illiterate 1
servant 1
backtracked 1
ossetian 1
renegotiate 1
tickets 1
euromillions 1
flutter 1
capabilities 1
contractors 1
employed 1
manpower 1
laurie 1
mains 1
warton 1
all-british 1
gholam 1
hossein 1
nozari 1
worded 1
mani 1
two-week-old 1
hermann 1
imre 1
goth 1
unsold 1
panicking 1
retiring 1
eradicating 1
judging 1
contacting 1
stockpiling 1
arming 1
curtails 1
sykora 1
louis-dreyfus 1
articles 1
intl 1
islamiyya 1
pleasure 1
postponing 1
wetlands 1
jungles 1
teeming 1
colourful 1
butterflies 1
exotic 1
glories 1
hamad 1
jassem 1
al-thani 1
fades 1
nero 1
colonized 1
scupper 1
hamper 1
obligations 1
half-empty 1
dotted 1
chunks 1
debris 1
subject 1
gentleman 1
loves 1
sportsmen 1
dentist 1
wrongly 1
micro-computer 1
eckhard 1
pfeiffer 1
outpace 1
yasuei 1
joichiro 1
tatsuyoshi 1
rosenberg 1
displaying 1
afonso 1
dhlakama 1
transporter 1
wobble 1
cancer-stricken 1
indecency 1
regrouped 1
chechenya 1
loser 1
dzhokar 1
slices 1
gerrit 1
zalm 1
bulging 1
precisely 1
stalks 1
chill 1
milwaukee 1
pall 1
molester 1
re-examines 1
rarest 1
postage 1
instigated 1
transoceanic 1
rafal 1
long-simmering 1
assistants 1
horton 1
bil 1
millon 1
unheralded 1
grunigen 1
revolts 1
first-class 1
stayer 1
multiplying 1
bust-up 1
've 1
arpad 1
goncz 1
ardy 1
budi 1
susanti 1
fleets 1
contented 1
repelled 1
now-defunct 1
clientele 1
#-month-old 1
outrageous 1
ittihad 1
equipping 1
sentiments 1
marian 1
re-signs 1
slovakian 1
flowers 1
candles 1
adorned 1
inflammation 1
long-suffering 1
mistress 1
utterance 1
motormen 1
overslept 1
sleeps 1
reinforcement 1
rewarding 1
sharpening 1
hotspots 1
south-eastern 1
mooted 1
discriminatory 1
remarry 1
remarried 1
reiterating 1
advertised 1
wares 1
pummelled 1
reticent 1
godfrey 1
miyanda 1
balked 1
daniele 1
massaro 1
medicines 1
accordingly 1
intensity 1
examined 1
deterioration 1
efsa 1
banca 1
lombarda 1
bresciano 1
same-day 1
balloons 1
joko 1
eliminates 1
prospective 1
chamonix 1
hedges 1
six-wicket 1
fritter 1
unusually 1
sapping 1
hopelessly 1
christies 1
kitten 1
self-confessed 1
eat 1
patrons 1
tempted 1
ziana 1
spends 1
steadied 1
desertification 1
elena 1
espinosa 1
acceding 1
liftoff 1
hamshahri 1
rpt 1
mediaset 1
alderman 1
polite 1
justo 1
considerable 1
wandered 1
unc 1
swelled 1
syrian-israeli 1
squabbling 1
daimlerchrysler 1
anchor 1
infringements 1
unpunished 1
dairies 1
honest 1
kayhan 1
commision 1
mum 1
niels 1
helveg 1
petersen 1
gili 1
protester 1
strangers 1
colorado 1
shared 1
koreas 1
anti-personnel 1
moldovan 1
tiraspol 1
##-storey 1
kent 1
five-power 1
exhorts 1
##-point 1
bitterly-disputed 1
cooperatives 1
isa 1
stifle 1
spearheaded 1
mastered 1
degree 1
crisis-torn 1
ethanol-blended 1
petrovietnam 1
redouble 1
specified 1
armchairs 1
sofas 1
investcorp 1
one-billion-dollar 1
guess 1
subjective 1
christened 1
christens 1
inexperienced 1
short-handed 1
lim 1
goh 1
tong 1
swipe 1
giacomo 1
mancini 1
mayrhuber 1
mentor 1
belichick 1
ballgame 1
siem 1
skid 1
carina 1
e 1
wagon 1
assembling 1
liberalised 1
nawal 1
ultra-conservative 1
span 1
shrapnel 1
dingiri 1
wijetunga 1
three-times 1
muscular 1
appliance 1
contravention 1
##-day-old 1
markedly 1
###-billion-euro 1
daunting 1
shortlived 1
pro-business 1
bejeweled 1
nino 1
burjanadze 1
formidable 1
non-eu 1
coached 1
murdoch 1
ex-dallas 1
web-based 1
russian-built 1
drachma 1
vitas 1
monoxide 1
redress 1
totalled 1
junkies 1
casey 1
triumphed 1
piste 1
slaloms 1
stinging 1
singling 1
filippo 1
inzaghi 1
wing-back 1
serginho 1
ducked 1
all-race 1
mckiernan 1
circulate 1
ex-defence 1
western-most 1
traumatised 1
extraditing 1
shahin 1
blasphemy 1
kinds 1
squatted 1
squats 1
poets 1
half-mile 1
end-of-the-year 1
housecleaning 1
coinciding 1
creationism 1
kemal 1
unakitan 1
non-us 1
watch\/asia 1
disregard 1
displacing 1
inheritance 1
parole 1
childhood 1
skied 1
armless 1
treks 1
incitement 1
electing 1
soothe 1
sore 1
throats 1
substituted 1
ear 1
infections 1
substitute 1
dakar 1
hans-adam 1
politial 1
two-match 1
frederic 1
antonetti 1
tech 1
virgilio 1
martinho 1
im 1
chechyna 1
guoqiang 1
respecting 1
straight-laced 1
distinctly 1
uncharismatic 1
nickname 1
willi 1
oevp 1
wilhelm 1
molterer 1
visa-free 1
restoring 1
relocated 1
andras 1
neither 1
post-storm 1
bai 1
koroma 1
complain 1
leoneans 1
scrutinise 1
buffer 1
preferential 1
gsm 1
instill 1
logs 1
forne 1
reconcile 1
jana 1
garriott 1
four-man 1
siew 1
mac 1
birdie 1
persuaded 1
blue-water 1
reckons 1
bumblebees 1
bumblebee 1
relish 1
birendra 1
certificates 1
groggy 1
drugged 1
morphine 1
overran 1
photographers 1
enforced 1
dissented 1
shorter 1
dissents 1
paring 1
bragged 1
heist 1
possessed 1
brandishing 1
banners 1
changeover 1
supermodel 1
gpt 1
formosa 1
plastics 1
limped 1
succumbing 1
limps 1
reviewed 1
snowfall 1
melamine-tainted 1
shortstop 1
seasons 1
mujahideen 1
stinger 1
developer 1
designating 1
totaling 1
ex-soldier 1
tearful 1
dull 1
top-of-the-table 1
foreign-language 1
kalymnos 1
sncf 1
ryutaro 1
telemarketing 1
registry 1
tareq 1
half-owned 1
retrenched 1
haute 1
showcasing 1
bespoke 1
revitalised 1
chop 1
distillers 1
macdonald 1
muir 1
smirnoff 1
cream 1
hedge 1
boomer 1
knowing 1
grievous 1
bodily 1
aces 1
offical 1
thumped 1
off-the-ball 1
moscow-based 1
ufg 1
##-pct 1
devolution 1
scrooge 1
isthmus 1
immoral 1
cartoons 1
transported 1
ready-to-wear 1
appropriately 1
cirque 1
thugs 1
liaoning 1
lacked 1
wheelchair 1
brightens 1
sidi 1
ould 1
abdallahi 1
pro-coup 1
gloat 1
resorting 1
tuzla 1
us-pakistan 1
tolerate 1
bret 1
drug-related 1
gregory 1
reintegration 1
integrating 1
spacesuit 1
staked 1
self-respect 1
reds 1
install 1
oca 1
lauren 1
booth 1
ted 1
televise 1
new-style 1
on-going 1
un-mandated 1
turks 1
freetown 1
leonean 1
larry 1
pre-fight 1
galvanize 1
compounded 1
touched 1
springbok 1
koen 1
borut 1
pahor 1
michelangelo 1
berbera 1
freshly-launched 1
creators 1
devilish 1
evolution 1
spawns 1
exams 1
enthusiasm 1
iron-ore 1
altitude 1
african-americans 1
heckled 1
chants 1
placards 1
heckle 1
vandalised 1
sex-mad 1
khaliq 1
theatrical 1
mentioning 1
surrounds 1
youssef 1
overturn 1
environmentalist 1
three-billion-dollar 1
hospitalise 1
anti-dam 1
funnel 1
martialled 1
anticipates 1
hateley 1
mccoist 1
hibernian 1
goram 1
surcharges 1
surcharge 1
write-downs 1
barbados 1
terse 1
##,###-mile 1
lobbies 1
gianluca 1
masterminds 1
chechnyan 1
graz 1
consequence 1
moyes 1
yzaga 1
exerts 1
pan-islamic 1
prudence 1
picketed 1
sanlu 1
sabotaged 1
grimly 1
stutter 1
stumble 1
doubters 1
stern 1
multicultural 1
chihana 1
sworn-in 1
garba 1
bedroom 1
re-released 1
updated 1
tweaked 1
vye 1
serra 1
thronged 1
throng 1
fih 1
olaf 1
feldmayer 1
exec 1
indyk 1
dividends 1
yogis 1
alf 1
inge 1
haaland 1
moratinos 1
grit 1
manuela 1
seven-storey 1
shoe-making 1
government-in-waiting 1
full-sized 1
suv 1
smoothly 1
warlords 1
long-cherished 1
meddling 1
posture 1
stocking 1
oceans 1
stockpile 1
channelled 1
russia-iran 1
backdrop 1
skins 1
boycotts 1
transfer-listed 1
steaua 1
bucharest 1
firefight 1
preisdent 1
shara 1
retreated 1
goldberg 1
airbases 1
explaining 1
chanderpaul 1
stimulative 1
funk 1
chastised 1
violate 1
sportswear 1
fila 1
monica 1
apparel 1
apa 1
gallery 1
abstract 1
barons 1
nicotine 1
wole 1
saro-wiwa 1
scouted 1
indosat 1
matan 1
fending 1
disturbing 1
appreciate 1
violently 1
mind 1
infiltrators 1
exported 1
testified 1
brandished 1
pakhoed 1
lambert 1
riviere 1
flavored 1
marketed 1
flashy 1
packages 1
detector 1
bulletin 1
brinksmanship 1
blinks 1
promptly 1
bellwether 1
pondering 1
proportions 1
bissau 1
principe 1
lengths 1
fodder 1
three-man 1
manzoor 1
nadir 1
damon 1
runner-up 1
schumacher 1
rewarded 1
secures 1
sn 1
snubbing 1
thierry 1
elland 1
enjoys 1
organistion 1
inefficiency 1
bureaucratic 1
wastage 1
saluted 1
phipps 1
medallists 1
blowing 1
expectation 1
downdraw 1
quotation 1
induced 1
pluripotent 1
ips 1
regenerative 1
procuratorate 1
caved 1
apprentice 1
sean 1
cleary 1
galway 1
turf 1
al-qassimi 1
confidants 1
multi-agency 1
kitty 1
hawk 1
interruption 1
mamduh 1
rename 1
costume 1
gaffe 1
strasbourg-based 1
airing 1
commercials 1
somalians 1
thicket 1
recriminations 1
tufnell 1
trans 1
guinean 1
conakry 1
al-engaz 1
al-watani 1
advocate 1
dynasty 1
fuhr 1
lafontaine 1
inducted 1
mid-year 1
cradock 1
cookery 1
lavished 1
fence-mending 1
award-winning 1
thrillers 1
ellroy 1
novels 1
highest-ever 1
pleasantly 1
pleased 1
ashish 1
afghanistan-based 1
rbi 1
severity 1
reformer 1
summonsed 1
bi-weekly 1
summonses 1
azerbaijani 1
ilham 1
aliyev 1
arch-enemy 1
out-of-date 1
accessory 1
manfacturer 1
formica 1
spanish-argentine 1
ypf 1
sines 1
bovelander 1
dazzle 1
know-how 1
eriksson 1
saepo 1
erroneous 1
regatta 1
padraig 1
saudia 1
nab 1
stabilized 1
buoyant 1
preceding 1
earmarking 1
scaled 1
scornfully 1
symptom 1
besieging 1
alaskan 1
southward 1
bugged 1
arbitrage-linked 1
eroded 1
liason 1
technicians 1
pins 1
homegrown 1
lincoln 1
indiana 1
roissy 1
ung 1
huot 1
satruday 1
precautions 1
rues 1
long-range 1
armaments 1
eradicated 1
aps 1
loosened 1
loosens 1
signings 1
harvesting 1
military-dominated 1
dooming 1
hvar 1
france-based 1
msf 1
premiering 1
filmmakers 1
wildly 1
spray 1
tempt 1
showbusiness 1
kirk 1
aretha 1
franklin 1
morton 1
gould 1
seeger 1
personalities 1
jean-louis 1
bony 1
auxerre 1
frei 1
shrugs 1
sc 1
freiburg 1
cure 1
troublesome 1
groin 1
battalions 1
numbering 1
francesca 1
martini 1
rentals 1
consultants 1
wootton 1
mart 1
plotter 1
commissions 1
banditry 1
disk 1
competes 1
cds 1
suitor 1
unhappiness 1
stateless 1
arbitrage 1
maneuver 1
bumped 1
mess 1
clegg 1
intimidated 1
proves 1
erosion 1
consulates 1
outstripped 1
camilo 1
zuniga 1
milion 1
five-month 1
establishing 1
oh-## 1
berti 1
wields 1
selldown 1
hassidic 1
computer-generated 1
clean-shaven 1
overturns 1
cornish 1
akhbar 1
al-yom 1
herb 1
back-up 1
ewing 1
knick 1
hindering 1
undemocratic 1
nonetheless 1
job-seekers 1
privileged 1
lasted 1
sor 1
ploenchit 1
nunez 1
tatiana 1
gitega 1
contributed 1
part-nationalisation 1
newly-created 1
huawei 1
zte 1
accelerating 1
tyson 1
fifty-five 1
gourmelon 1
rafiq 1
nominates 1
oued 1
extravagant 1
hesitation 1
anti-eu 1
inter-palestinian 1
dfb 1
four-match 1
assicurazioni 1
generali 1
kalahari 1
avoiding 1
installments 1
jamming 1
asrat 1
tuck 1
cunard 1
irate 1
en-route 1
seismic 1
excavation 1
queens 1
orchestrated 1
overdose 1
xanana 1
gusmao 1
prowling 1
halls 1
compartment 1
steering 1
five-foot 1
beset 1
bigot 1
mehr 1
cables 1
transmit 1
#,###-plus 1
masood 1
rawalpindi 1
inzamam 1
ul 1
haq 1
padding 1
deir 1
quelling 1
permanently 1
hotbed 1
al-qaeda-linked 1
defy 1
heralds 1
operative 1
overheat 1
bfe 1
overheating 1
over-##s 1
caving 1
coop 1
sher 1
bahadur 1
deuba 1
con 1
noel 1
downhills 1
one-two 1
burundians 1
rioted 1
drug-trafficking 1
abuse-of-power 1
grishchenko 1
gale-force 1
crewmembers 1
sunnis 1
homecoming 1
cambodge 1
vietnam-style 1
quagmire 1
everybody 1
pretty 1
mattered 1
run-rate 1
syndicate 1
all-clear 1
berber 1
pernilla 1
wiberg 1
cortisone 1
cover-up 1
futuna 1
red-handed 1
region-wide 1
morshed 1
two-story 1
philipp 1
discourages 1
traditions 1
bikini-clad 1
bristles 1
member-states 1
physics 1
unravel 1
mysteries 1
commander-in-chief 1
seawall 1
ghost 1
tongue 1
bastards 1
toughens 1
renewing 1
seguin 1
elliott 1
relating 1
foreign-exchange 1
yu 1
chao 1
six-year 1
henning 1
christophersen 1
four-decade-long 1
harbors 1
shipments 1
kaohsiung 1
insuring 1
face-lift 1
anglo-french 1
guerillas 1
zara 1
aeronautics 1
robotic 1
penal 1
woodchip 1
assuage 1
thank 1
smoker 1
hormone 1
testosterone 1
exaggerated 1
hurried 1
four-month-old 1
devout 1
##-week 1
flog 1
bled 1
floggings 1
audiovisual 1
jabs 1
rutherford 1
precaution 1
mourned 1
bunker 1
height 1
superiority 1
thus-far 1
appeasement 1
aspersions 1
eats 1
pie 1
neglectful 1
gustavo 1
galindo 1
flipped 1
market-moving 1
minds 1
blitzing 1
humiliate 1
beleagured 1
arsonists 1
grouped 1
ashes-winning 1
synchronised 1
'd 1
jia 1
alexandr 1
kozulin 1
abbot 1
shortlisted 1
over-optimism 1
brigades 1
taunting 1
pemex 1
hubei 1
imposes 1
blighting 1
short-lived 1
heap 1
unload 1
adoptive 1
lied 1
competitions 1
employing 1
spar 1
inter-ethnic 1
allocates 1
stymied 1
resurrect 1
enders 1
mare 1
staring 1
stares 1
anz 1
mid-day 1
furnished 1
managua 1
mircea 1
snegur 1
two-month 1
turnover 1
pre 1
lectures 1
booklets 1
fourth-largest 1
columbia 1
computerized 1
buff 1
cloning 1
mass-producing 1
cloned 1
llc 1
salaried 1
reductions 1
resorts 1
divides 1
three-week-old 1
machinegun 1
six-hour 1
beja 1
proactive 1
shooter 1
playmaker 1
zorc 1
dwyer 1
bypass 1
simultaneously 1
motorsport 1
pro-putin 1
intrigued 1
shipped 1
millennium 1
window-dressing 1
sits 1
fence 1
mi# 1
images 1
eagerly 1
indian-american 1
jhumpa 1
lahiri 1
unrevised 1
townships 1
brews 1
one-billion 1
scandinavia 1
vi 1
bicycles 1
mould 1
formaldehyde 1
dangerously 1
co-directed 1
choreographer 1
akram 1
decisively 1
deploring 1
haves 1
nots 1
eating 1
eaten 1
assam 1
gbagbo 1
shoving 1
nokia 1
datacraft 1
beheading 1
beheadings 1
splinter 1
violence-hit 1
baja 1
throes 1
precautionary 1
solidify 1
ruble-denominated 1
denominated 1
isolating 1
over-crowded 1
flood-ravaged 1
self-ruled 1
sahrawi 1
tindouf 1
south-west 1
swear 1
british-based 1
epicentre 1
ex-dictator 1
qian 1
qichen 1
concedes 1
bluntly 1
brothers-backed 1
structured 1
shoulder-to-shoulder 1
ex-irish 1
four-lane 1
circumstances 1
high-street 1
h&amp;m 1
slower-than-expected 1
operatives 1
ambushing 1
talbak 1
postive 1
zwelithini 1
honolulu 1
half-yearly 1
scorching 1
multi-media 1
implicate 1
facilitators 1
tattered 1
= 1
stumbled 1
evoke 1
solidly 1
hardworking 1
hard-nosed 1
stripes 1
peers 1
evenly 1
matched 1
fred 1
borre 1
lundberg 1
knut 1
apeland 1
darmstadt 1
creations 1
pralines 1
al-qabas 1
zhelyu 1
zhelev 1
epoch-making 1
redressing 1
wrongs 1
state-sponsored 1
futuristic 1
villain 1
tvs 1
box-office 1
two-sport 1
flogging 1
bibles 1
weathers 1
resting 1
subscribed 1
disclose 1
regularly 1
possess 1
purpose 1
stellar 1
us-funded 1
chairs 1
reflects 1
optus 1
abdalla 1
engaz 1
watani 1
crafts 1
maharajas 1
governance 1
siphoning 1
khatami 1
tradition-bound 1
sumo 1
petty 1
departures 1
demographic 1
staffing 1
trough 1
center-left 1
sihamoni 1
fraudster 1
stirred 1
trembles 1
awake 1
overfishing 1
suplus 1
seabed 1
recognizes 1
north-west 1
risley 1
commentator 1
yusuf 1
al-qaradawi 1
listened 1
confronted 1
nightmares 1
fifth-round 1
attracted 1
amenities 1
absorbs 1
greeting 1
riders 1
crammed 1
crams 1
dykes 1
bushy 1
beards 1
saturdy 1
facial 1
orchestrating 1
routine 1
boarding 1
overheated 1
regulating 1
mummify 1
scratched 1
coasted 1
ba-aa 1
preventive 1
menace 1
holmgren 1
buckle 1
val 1
d'isere 1
realtors 1
than-expected 1
plebiscite 1
tariff 1
dreary 1
yielded 1
landlocked 1
always 1
india-china 1
etimor 1
soft 1
pro-reformist 1
recaptured 1
hard-driving 1
smasher 1
sinaloa 1
vented 1
snowballing 1
wane 1
types 1
chinese-manufactured 1
lahore 1
undesirables 1
messy 1
careens 1
monte 1
greenspan 1
groped 1
stockmarkets 1
gropes 1
hiatus 1
compatriots 1
pacifists 1
termed 1
faint 1
priced 1
deep-sea 1
volley 1
marco 1
title-holders 1
baruch 1
goldstein 1
attractive 1
destinations 1
lanxade 1
pause 1
interval 1
ruslan 1
aushev 1
wholescale 1
#,###-kilometre 1
#,###-mile 1
inaction 1
sputter 1
staggered 1
isaias 1
samakuva 1
gail 1
rupees 1
billon 1
co-operate 1
investigations 1
edvard 1
munch 1
masterpiece 1
apostolakis 1
financial-sector 1
ssangyong 1
nikkei-### 1
nod 1
formerly 1
samar 1
itno 1
chalk 1
eyebrows 1
conservationists 1
war-battered 1
alarmist 1
swindled 1
distributed 1
swindles 1
anti-globalization 1
eyed 1
reposition 1
baden-wuerttemberg 1
ilo 1
andrzej 1
olechowski 1
injury-plagued 1
warriors 1
mickael 1
justin 1
chanceless 1
###-million-yuan 1
##.#-million-us-dollar 1
zhanjiang 1
achim 1
omer 1
spurned 1
capel 1
burkina 1
faso 1
mamadou 1
pleas 1
foundering 1
sprawled 1
mong 1
chatted 1
paths 1
rector 1
dalil 1
boubakeur 1
collegiate 1
fanaticism 1
engagement 1
mongolia 1
bayar 1
mongolian 1
vanish 1
five-billion 1
disneyland 1
sq 1
demoralising 1
ruptures 1
ammar 1
zahwa 1
de-facto 1
ponder 1
batted 1
volunteered 1
vincenzo 1
super-flyweight 1
transactions 1
repatriates 1
crypt 1
tripartite 1
governed 1
falklands 1
##.##-billion 1
###.#-million-dollar 1
practical 1
takers 1
immobilized 1
largest-ever 1
boumediene 1
amassing 1
moribund 1
jew 1
applauding 1
betterment 1
metropolitan 1
considerations 1
al-attiya 1
detrimental 1
culprit 1
selecting 1
select 1
japanese-american 1
takei 1
altman 1
weds 1
hartson 1
anderlecht 1
parkhead 1
ex-army 1
hijacks 1
commoner 1
cellular 1
celcom 1
anti-money 1
repeatedly 1
rearm 1
graft-tainted 1
parisian 1
facelift 1
musa 1
incidence 1
ids 1
togolese 1
lome 1
gnassingbe 1
eyadema 1
congratulations 1
recipients 1
manipulate 1
transkei 1
m.w. 1
niece 1
salam 1
majali 1
converge 1
atmosphere 1
pow-wow 1
harmful 1
snacks 1
law-enforcement 1
mafia-related 1
reinforcements 1
ratcheting 1
warmly 1
tommy 1
moe 1
wondering 1
governent 1
business-as-usual 1
groundswell 1
intend 1
coucil 1
ndabaningi 1
sithole 1
influenced 1
uneven 1
laissez-faire 1
organize 1
huang 1
qi 1
lucien 1
bouchard 1
delegations 1
marcel 1
friedhelm 1
funkel 1
aeronautical 1
ivanko 1
mouth-watering 1
match-up 1
grace 1
###.#-billion-peso 1
lopped 1
eu-turkey 1
cheat 1
niceties 1
bulldozes 1
capping 1
cage 1
viability 1
german-born 1
ats 1
lana 1
top-up 1
self-service 1
three-decade 1
motive 1
wrest 1
kilinochchi 1
heron 1
twa 1
pierces 1
dursun 1
occupy 1
nag 1
hammadi 1
bern 1
mengozzi 1
anti-castro 1
storm-battered 1
sprouting 1
suburban 1
malls 1
competing 1
poorer 1
consort 1
pulmonary 1
rvd 1
aristocrats 1
simulated 1
responses 1
unravelling 1
objects 1
marbles 1
uruguayan 1
maresca 1
raking 1
knifes 1
quashed 1
in-laws 1
marrying 1
clogging 1
dpp 1
feer 1
fiori 1
recovers 1
surpassed 1
coercion 1
soraya 1
ansari 1
paramount 1
luc 1
##-foot 1
tired 1
bestow 1
pik 1
botha 1
screwing 1
kersee 1
empty-handed 1
undertaken 1
provision 1
erasing 1
delete 1
censoring 1
grandchildren 1
folks 1
enthralling 1
helens 1
decentralize 1
cumbersome 1
obese 1
slave 1
beings 1
slavery 1
passarella 1
yugoslavs 1
abstained 1
fininvest 1
giulio 1
passion 1
rod 1
infuriating 1
toddlers 1
unclaimed 1
second-half 1
header 1
profligate 1
brahmanbaria 1
ecological 1
ecologist 1
fast-changing 1
mozambicans 1
streamlined 1
nettles 1
three-member 1
lantau 1
neolithic 1
your 1
jo-wilfried 1
tsonga 1
monfils 1
straight-set 1
formalised 1
macro 1
resilience 1
persevering 1
inhalation 1
exhumation 1
exhumations 1
french-speakers 1
discriminated 1
prodigy 1
symonds 1
flails 1
garden 1
hoses 1
charred 1
beachfront 1
villas 1
fray 1
serbians 1
alexei 1
centered 1
redistribution 1
janitor 1
abdurrahman 1
reeled 1
un-brokered 1
governemnt 1
democratically 1
produces 1
giacometti 1
braque 1
intimate 1
maul 1
specialising 1
ceased 1
xl 1
ineptitude 1
ethan 1
exist 1
presidential-style 1
natwest 1
ransacked 1
refloat 1
advised 1
luxurious 1
montazeri 1
rent 1
###-square-meter 1
square-foot 1
pittance 1
conquered 1
farcical 1
mathematical 1
correctly 1
shutout 1
forensics 1
baptised 1
meizhou 1
discovers 1
shaharyar 1
jacqui 1
mees 1
monika 1
integrate 1
headscarf 1
installment 1
blockbuster 1
ile-ife 1
thefts 1
pro-opposition 1
kikuyu 1
kikuyus 1
sissi 1
crete 1
forty-four 1
saddened 1
railing 1
kenema 1
relishing 1
shackling 1
shahbaz 1
meco 1
headbutt 1
ravine 1
e.a. 1
gibson 1
terrible 1
caen 1
zelaya 1
porcelain 1
novices 1
matchday 1
blood-related 1
homepage 1
revitalize 1
clp 1
najibullah 1
recuperation 1
transforming 1
loss-making 1
eidur 1
betis 1
notch 1
blushes 1
ambushes 1
lutherans 1
pre-world 1
pre-wwii 1
apologise 1
racially 1
abusive 1
premiered 1
screened 1
earnest 1
guillermo 1
coercive 1
cobbled 1
medieval 1
towers 1
lilting 1
arbitrary 1
apply 1
army\/movement 1
spla 1
terrorising 1
retiree 1
xu 1
lili 1
hurts 1
evangelicals 1
hasidic 1
alike 1
subvert 1
migrated 1
migrate 1
certification 1
idd 1
furthering 1
grassroots 1
streamlining 1
elephantine 1
enfeebled 1
chertoff 1
ministery 1
accomplice 1
pinning 1
samoan 1
maxi 1
sydney-to-hobart 1
hobart 1
chang 1
genes 1
taliban-style 1
pt 1
kuala 1
lumpur 1
yarov 1
outlining 1
ria 1
riga 1
slasher 1
spooky 1
downsize 1
downsizes 1
near-certain 1
walnuts 1
pouring 1
wholesaling 1
tao 1
gareth 1
twickenham 1
wrapping 1
progressing 1
rehab 1
studying 1
expells 1
gov 1
ziegler 1
pyramid-shaped 1
unconditional 1
haifa 1
eilat 1
aqaba 1
rounder 1
eu-russia 1
###-share 1
wharf 1
collective 1
ruthlessly 1
efficient 1
alpha 1
open-mouthed 1
dumbfounded 1
stressing 1
reinforcing 1
oaxaca 1
backward 1
emphasises 1
dislike 1
outscoring 1
wharton 1
answers 1
ordinance 1
clause 1
sociological 1
funded 1
cibc 1
cared 1
lucky 1
heath 1
batasuna 1
utah 1
bad-boy 1
strings 1
inchon 1
associating 1
lessen 1
lead-up 1
dubbing 1
lays 1
dubs 1
bearings 1
ploughing 1
european-based 1
brake 1
fluid 1
muscovites 1
wsj 1
pieces 1
untroubled 1
muscat 1
medium 1
sultanate 1
levy 1
arsenals 1
insensitivity 1
genital 1
separated 1
neglected 1
subpoena 1
asf 1
excesses 1
taag 1
retaken 1
squarely 1
racket 1
eighteen 1
methanol 1
moonshine 1
satanic 1
obligatory 1
contaminate 1
blackmailers 1
stoppage 1
scrapped 1
chinese-owned 1
verbal 1
spokewoman 1
motto 1
committe 1
wearer 1
sanath 1
slaughtered 1
slaughters 1
paymaster 1
lean 1
pitches 1
doctoring 1
yunnan 1
tusks 1
guangming 1
interfax-ukraine 1
refuel 1
four-way 1
seldom 1
diabetes 1
abnormalities 1
squat 1
spoilt 1
spicy 1
nonpartisan 1
canadian-american 1
gehry 1
transporting 1
weston 1
strategies 1
bangkok-bound 1
chonburi 1
conservation 1
droughts 1
typhoons 1
decimated 1
irrigation 1
churchgoer 1
curse 1
provokes 1
grilling 1
comfy 1
reverend 1
u.n. 1
embarks 1
locomotive 1
unavoidable 1
headmistress 1
contingency 1
yugo 1
frontrunner 1
quickens 1
stoking 1
physicists 1
jubilant 1
startup 1
cosmos 1
tennessee 1
majors 1
deparment 1
inspector-general 1
dieter 1
naumann 1
require 1
tana 1
darkest 1
worms 1
striving 1
ric 1
charlesworth 1
###-percent 1
rubles 1
rocketed 1
staving 1
contraction 1
nout 1
wellink 1
reassign 1
sayyed 1
tantawi 1
stand-in 1
grind 1
unattractive 1
officiate 1
bye 1
one-wicket 1
underdogs 1
dirham 1
underlining 1
ratios 1
exterior 1
ramp 1
arises 1
mistreated 1
utmost 1
subjugate 1
clarence 1
makwetu 1
fogh 1
rasmussen 1
ritzau 1
mobilizing 1
caucasians 1
mobilize 1
assist 1
hoped-for 1
tempers 1
hashim 1
thaci 1
encountering 1
manipur 1
arresting 1
firefighter 1
hand-written 1
fetches 1
##-and-a-half 1
raiffeisen 1
bazaar 1
diario 1
dressed 1
witches 1
myers 1
investigative 1
prone 1
deceit 1
us-skorea 1
clipping 1
telegraph 1
simson 1
samaranch 1
shiite-majority 1
demolished 1
spas 1
courses 1
six-star 1
aegean 1
greece-turkey 1
conversation 1
legalise 1
joking 1
procedural 1
insein 1
robes 1
rituals 1
resonates 1
silenced 1
broadcasters 1
magnificent 1
mighty 1
firemen 1
sanctioned 1
prophet 1
##-dollar-a-barrel 1
diplomas 1
weeding 1
precondition 1
tacit 1
powderkeg 1
helmand 1
nippon 1
gupta 1
vegetarian 1
synonymous 1
burger 1
fries 1
veggie 1
exceptionally 1
ex-strongman 1
linford 1
brimming 1
guerilla 1
eib 1
chemist 1
lev 1
fyodorov 1
kgaa 1
###-kilometer 1
womenfolk 1
desperately-needed 1
hashemi 1
imprisons 1
##-mile 1
##-kilometer 1
croydon 1
tram 1
armen 1
zulus 1
malaise 1
motorcyclist 1
arbiters 1
deduct 1
protestants 1
micro-blogging 1
tweeting 1
distributing 1
slandering 1
rummaging 1
spinning 1
enforcing 1
benefited 1
infantry 1
motorist 1
consular 1
heckler 1
wrath 1
buzzed 1
restrictive 1
detectives 1
campsite 1
zoran 1
primorac 1
ewood 1
parkes 1
fascist 1
unapproved 1
ointment 1
boars 1
porcine 1
ismaili 1
second-class 1
ismailis 1
hence 1
symbolize 1
thinking 1
derided 1
cultures 1
anti-porn 1
generating 1
sleep 1
overweight 1
capability 1
locally-produced 1
eastwards 1
enthusiast 1
seamless 1
reinsurance 1
accountability 1
snags 1
collins 1
behind-the-scenes 1
buckingham 1
earmark 1
sewage 1
earmarks 1
licenced 1
outnumbered 1
julen 1
eibar 1
adios 1
preparatory 1
feelers 1
unwelcome 1
murray 1
d'onofrio 1
mcp 1
promotional 1
fare 1
dover 1
commonplace 1
skyrockets 1
seminar 1
experiences 1
three-shot 1
professes 1
longstanding 1
evaporating 1
avoids 1
pyrenees 1
pistes 1
juri 1
manto 1
tshabalala-msimang 1
reshuffled 1
impression 1
solder 1
bursting 1
tryscorer 1
denis 1
hickie 1
achilles 1
try-scorer 1
skyrocketing 1
inch 1
newfound 1
beams 1
multimillion-dollar 1
queries 1
awoke 1
flak 1
deficits 1
mana 1
hancock 1
walters 1
near-total 1
rigs 1
athenian 1
captan 1
nikolas 1
dardanelles 1
gers 1
hirondelle 1
honed 1
organizes 1
competitiveness 1
real-estate 1
teetered 1
convening 1
vcrs 1
spilling 1
thy 1
aua 1
missoni 1
splashed 1
splashes 1
emphasis 1
minsiter 1
shanxi 1
profession 1
naqura 1
overfly 1
flint 1
michigan 1
five-week-old 1
firsts 1
ranked 1
profiting 1
marx 1
harshest 1
tripura 1
adam 1
jibe 1
standardising 1
inter-bank 1
ever-widening 1
heighten 1
aom 1
liberte 1
non-smokers 1
thoracic 1
squandered 1
cheaply 1
meps 1
kosice 1
repayments 1
defaulting 1
escorting 1
scouring 1
fidelity 1
magellan 1
bits 1
sharpen 1
unauthorized 1
intruders 1
brutally 1
anti-terrorism 1
anti-eta 1
pawns 1
relive 1
dissatisfaction 1
preferring 1
seller 1
eurocopter 1
procurement 1
dreamliner 1
four-and-a-half 1
nepalgunj 1
bailey 1
switzerlands 1
speechwriter 1
copying 1
luminaries 1
undoubtedly 1
floodlights 1
consulted 1
now-bankrupt 1
counterfeiting 1
issa 1
salman 1
one-gigabit 1
pockets 1
po 1
commemorations 1
houston-based 1
galliano 1
heeded 1
partnered 1
chiffon 1
hot-spots 1
april-may 1
zero-emission 1
decried 1
sexist 1
foolish 1
biochemical 1
aldo 1
ajello 1
pirating 1
oppressive 1
ioannina 1
thawing 1
et 1
travaux 1
publics 1
consob 1
dagbladet 1
misunderstood 1
coalitions 1
hardly 1
zipper 1
headlines 1
pearson 1
manufactured 1
directory 1
restaurants 1
scrupulously 1
contigent 1
proposition 1
nigerians 1
bologna 1
ayrton 1
#st 1
drifts 1
damage-control 1
ranged 1
tantamount 1
self-inflicted 1
impressionist 1
hold-out 1
surpasses 1
solitary 1
confinement 1
conservative-led 1
back-row 1
grossman 1
snared 1
waterfront 1
banque 1
indosuez 1
clans 1
rebuked 1
half-centuries 1
waughs 1
recharged 1
smmt 1
imprudent 1
nolan 1
hegemony 1
brittany 1
applications 1
folk 1
shalom 1
ribbon 1
vertical 1
rouen 1
cartels 1
calabria 1
kingpin 1
wu 1
yi 1
north-eastern 1
perished 1
korean-based 1
costas 1
hatzidakis 1
havel 1
slugger 1
outfielder 1
otis 1
nixon 1
baseman 1
ortiz 1
eggs 1
chasing 1
third-ever 1
annex 1
cosa 1
nostra 1
youngster 1
emanuel 1
pogatetz 1
taib 1
repositioning 1
moviemaker 1
taormina 1
club-wielding 1
marvelous 1
icbc 1
corrosive 1
balkenende 1
fabric 1
reformed 1
resemble 1
co-defence 1
pure 1
repeats 1
mukasey 1
gonzales 1
attorneys 1
sullied 1
caps 1
apiece 1
rptn 1
newts 1
frogs 1
tortoises 1
quantities 1
cw 1
pro-cannabis 1
abyan 1
entertains 1
indie 1
relocating 1
trendy 1
oblige 1
unease 1
reservists 1
yard 1
mandelson 1
graffiti 1
swastikas 1
daubed 1
walls 1
gijon 1
rashidi 1
six-way 1
perpetrated 1
silly 1
obstructionism 1
swam 1
fizzled 1
tamely 1
melville 1
mangled 1
corpse 1
mainly-moslem 1
distant 1
slack 1
anarchist 1
frontrunners 1
safely 1
gust 1
storm-damaged 1
to-face 1
recruiting 1
legacy 1
workshop 1
ria-novosti 1
billowing 1
shillings 1
vials 1
icj 1
gunfight 1
china-based 1
distinguish 1
defamation 1
leaflet 1
mulhouse 1
infringe 1
evils 1
accountants 1
guitarist 1
albums 1
ultimatums 1
antiquity 1
#.#-million-euro 1
alerting 1
motoren 1
werke 1
vickers 1
armenians 1
stating 1
spiked 1
portraits 1
kaleidoscopic 1
butterfly 1
xiaogang 1
monochromatic 1
spire 1
composition 1
bedevilled 1
forgo 1
prizemoney 1
zhu 1
bacher 1
stockport 1
bribed 1
bookies 1
mis-selling 1
argyle 1
jeopardy 1
disclosures 1
tariq 1
ashley 1
receipts 1
streamers 1
distillates 1
naira 1
bricked 1
recep 1
tayyip 1
erdogan 1
insure 1
propelled 1
clocked 1
#hrs 1
##mins 1
##secs 1
#:##.## 1
rambling 1
une 1
nut 1
enforcers 1
minimal 1
gyude 1
jumpstart 1
war-affected 1
admiring 1
meticulous 1
punctuality 1
hunger-striker 1
residences 1
manley 1
delicacies 1
sarcophagi 1
slicing 1
antiquities 1
ana 1
palacio 1
#min 1
rapturous 1
principally 1
tunis 1
seatbelts 1
seatbelt 1
front-runner 1
walks 1
defective 1
anton 1
martti 1
ahtisaari 1
clearer 1
unaccounted 1
troika 1
taxied 1
noisy 1
wafa 1
revising 1
unwanted 1
endangering 1
sm 1
entrepreneur 1
rolo 1
readied 1
geiger 1
garnering 1
disembarked 1
faucets 1
toilets 1
mishaps 1
computerised 1
swaps 1
mettle 1
troubleshooting 1
alicante 1
oran 1
foray 1
null 1
void 1
manner 1
cosmetic 1
complexion 1
wrinkles 1
counterrevolutionary 1
lesser 1
intercepted 1
dugit 1
vojislav 1
seselj 1
rieper 1
storrie 1
dane 1
pretender 1
assessing 1
advert 1
part-owned 1
catapulted 1
ondieki 1
#.##-million 1
co-ruling 1
flareup 1
a-bomb 1
bureaus 1
inventing 1
ex-head 1
shifted 1
suspicious 1
manoj 1
application 1
spiraling 1
searing 1
mid-november 1
pirated 1
featureless 1
defunct 1
resurrected 1
cyberspace 1
gvero 1
unusual 1
roasting 1
savaging 1
adolf 1
ex-general 1
josette 1
sheeran 1
unblock 1
manila-based 1
pan-asia 1
'## 1
skidded 1
koschnik 1
yangon 1
legs 1
pagoda 1
starved 1
starve 1
filmed 1
confessions 1
disgraceful 1
reinforces 1
hardens 1
passionate 1
supermiddleweight 1
nunn 1
pleading 1
military-grade 1
holdup 1
blip 1
schoolyard 1
ablaze 1
haile 1
mariam 1
instinct 1
implied 1
acquitting 1
escorts 1
sdf 1
tailored 1
android 1
sept. 1
pyrenean 1
chantal 1
backes 1
shackles 1
auschwitz-birkenau 1
visually-impaired 1
fortuna 1
honda 1
middle-class 1
sans 1
frontieres 1
propagandist 1
wankhede 1
affects 1
rizzuto 1
gangsterism 1
importing 1
maddow 1
black-and-white 1
asphalt 1
teeter 1
perils 1
commitments 1
approached 1
persists 1
leyton 1
poors 1
higer 1
transcript 1
warm-up 1
abdul 1
amir 1
sixto 1
duran 1
ballen 1
curses 1
cot 1
philanthropic 1
###-mln-euro 1
meters 1
jesse 1
owens 1
sooner 1
balcony 1
saadun 1
compiled 1
manouchehr 1
mottaki 1
hard-hit 1
imc 1
confiscating 1
midst 1
khadr 1
nasrallah 1
dearly 1
approximately 1
trillion-dollar 1
wilshire 1
broadest 1
madame 1
grandes 1
anne 1
concealed 1
gustaf 1
elisabeth 1
tutor 1
actors 1
bor 1
resettle 1
inhuman 1
tizi 1
ouzou 1
eluded 1
puniet 1
triumphs 1
needham 1
finest 1
indo 1
integrated 1
anti-american 1
conjugal 1
grzegorz 1
kolodko 1
skipping 1
extravagance 1
constraints 1
thrift 1
germanwings 1
condor 1
catalonia 1
ditches 1
riley 1
politico 1
initialed 1
nyan 1
unwarranted 1
nuclear-powered 1
newport 1
shipyard 1
meals 1
dans 1
authorisation 1
frazzled 1
recouped 1
actor-director 1
directorial 1
cna 1
weaker-than-expected 1
gaffe-prone 1
flouted 1
quarantine 1
distributors 1
saboteur 1
bludgeon 1
dismembered 1
ate 1
horrifying 1
shaft 1
applaud 1
quarter-century 1
cashflow 1
drained 1
ipos 1
drain 1
realism 1
noting 1
realist 1
tekel 1
pollsters 1
destabilization 1
heartened 1
trainer 1
sepp 1
blatter 1
enthusiastically 1
confederations 1
ieng 1
mouly 1
vary 1
computer-maker 1
disrespect 1
downtrend 1
hzds 1
archipelago 1
functions 1
cockpit 1
bakri 1
budgeted 1
morgue 1
decorations 1
johannessen 1
catamaran 1
colliding 1
maoist-led 1
one-time 1
stiffens 1
instances 1
check-in 1
handlers 1
walkout 1
scandal-tainted 1
horse-trading 1
oyvind 1
leonhardsen 1
dons 1
one-seat 1
rim 1
bromo 1
surabaya 1
npa 1
perks 1
disintegration 1
custom 1
boozers 1
swedish-speaking 1
mirroring 1
smc 1
milling 1
processor 1
florina 1
geographical 1
vjesnik 1
correspondant 1
nguema 1
malabo 1
religions 1
sandy 1
lesser-known 1
rejoice 1
ramping 1
bombard 1
maldivians 1
massaging 1
yogurt 1
evokes 1
grandmothers 1
silhouettes 1
can-can 1
charmed 1
grannies 1
charms 1
pairs 1
head-to-head 1
record-breaking 1
##-feet 1
sloop 1
notoriously 1
smoggy 1
paralympic 1
usgs 1
rumored 1
caucus 1
millenium 1
vexed 1
enthusiasts 1
thronging 1
keenly 1
crowds 1
bp 1
gamache 1
thirty-six 1
maroni 1
center-right 1
twenty-three 1
assisted 1
supplementary 1
cushion 1
snooker 1
backstage 1
cns 1
karim 1
rida 1
annualised 1
nok 1
scb 1
departments 1
divert 1
muhammad 1
soliman 1
ccf 1
courted 1
woos 1
expression 1
rebuffs 1
dae 1
jung 1
receipt 1
dae-jung 1
epidemics 1
congratulated 1
mcwhinney 1
halfway 1
wagner 1
astros 1
nkoreans 1
yury 1
luzhkov 1
ex-government 1
ex-minister 1
discussion 1
frostbite 1
exhorted 1
eternal 1
biotechnology 1
biotech 1
warred 1
bedouin 1
fifty-nine 1
instituting 1
commentators 1
white-owned 1
remarkable 1
whisker 1
world-wide 1
second-biggest 1
decriminalising 1
progresses 1
countrymen 1
rumour 1
grinds 1
strides 1
validity 1
julius 1
bruni-sarkozy 1
baba 1
nanak 1
camouflage 1
parkas 1
trudging 1
outback 1
about-turn 1
heinrich 1
pierer 1
plump 1
greying 1
dares 1
echos 1
lysenko 1
fringes 1
suck 1
aging 1
saud 1
al-faisal 1
graft-busting 1
constable 1
hugh 1
annesley 1
tipple 1
commemorated 1
pennsylvania 1
commending 1
sacrifice 1
proving 1
retaliate 1
darby 1
abul 1
gheit 1
european-made 1
airplanes 1
provocative 1
panned 1
thumbs-down 1
endorsements 1
forbes 1
one-quarter 1
two-and-a-half 1
bolivians 1
conserving 1
rockefeller 1
frenchmen 1
seaway 1
thai-us 1
contaminating 1
cazin 1
hue 1
[...]
